<unk>	0
<s>	0
</s>	0
▁.	-2.49591
▁'	-3.21646
s	-3.46945
▁a	-3.86426
▁I	-4.11459
▁de	-4.33553
t	-4.44586
▁to	-4.46506
▁,	-4.53154
▁the	-4.57907
▁you	-4.62528
-	-4.6703
▁	-4.78567
▁Je	-4.8
?	-4.87489
▁pas	-4.88189
▁Tom	-4.95663
▁?	-4.95741
▁la	-5.02973
▁que	-5.08171
▁is	-5.13562
e	-5.14512
▁le	-5.15081
▁ne	-5.26534
▁me	-5.27846
▁est	-5.31392
▁l	-5.33471
▁Il	-5.34847
▁of	-5.44361
▁un	-5.48892
▁in	-5.49341
▁n	-5.50717
est	-5.53995
ai	-5.54091
▁d	-5.60321
d	-5.62081
▁The	-5.64615
▁J	-5.69498
▁that	-5.70825
a	-5.73561
y	-5.74973
▁vous	-5.7579
r	-5.76656
▁en	-5.79531
▁He	-5.80636
m	-5.81787
ed	-5.82682
▁was	-5.85443
▁une	-5.86803
▁it	-5.88151
re	-5.88203
▁You	-5.88576
▁ce	-5.93665
▁have	-5.95086
▁for	-5.97506
il	-5.97607
▁les	-5.9771
▁be	-6.0241
▁C	-6.05282
▁pour	-6.06981
n	-6.12802
▁je	-6.13292
▁Elle	-6.14632
▁do	-6.14862
▁!	-6.16457
▁not	-6.17477
▁qu	-6.21758
▁this	-6.22126
▁your	-6.22404
▁suis	-6.23004
▁on	-6.23806
ment	-6.25035
▁my	-6.25286
ing	-6.25306
vous	-6.25426
▁don	-6.25469
▁She	-6.25757
▁are	-6.26037
▁s	-6.26814
▁with	-6.27006
tu	-6.28766
▁and	-6.28799
▁et	-6.2926
▁du	-6.32017
▁dans	-6.32186
▁We	-6.32584
▁can	-6.32942
▁m	-6.34682
▁tu	-6.42756
▁plus	-6.43979
▁like	-6.43993
▁des	-6.44484
▁Nou	-6.45562
▁want	-6.47002
▁se	-6.47565
▁faire	-6.4974
▁Tu	-6.50608
▁It	-6.52255
▁know	-6.5367
es	-6.53972
▁Le	-6.57145
er	-6.57311
▁he	-6.57733
▁his	-6.58794
▁nous	-6.59398
ce	-6.59445
▁sur	-6.61231
▁qui	-6.62621
▁au	-6.631
!	-6.63583
▁Vous	-6.64398
ll	-6.6601
vec	-6.68408
▁her	-6.70244
ve	-6.7026
▁fait	-6.72991
▁ca	-6.73483
▁him	-6.75011
▁all	-6.75066
▁at	-6.75774
▁What	-6.76033
▁La	-6.77461
▁what	-6.77473
▁te	-6.78037
▁sont	-6.78828
▁son	-6.7957
▁Ce	-6.8178
▁go	-6.82159
▁Mary	-6.82865
en	-6.83295
▁A	-6.84122
▁Do	-6.86661
▁think	-6.90464
ly	-6.90666
▁has	-6.92921
z	-6.93432
▁tout	-6.9572
▁time	-6.96251
▁will	-6.96757
▁Les	-6.96821
▁mon	-6.96885
▁Thi	-6.97178
▁veux	-6.98431
▁as	-6.99013
▁about	-6.99212
▁par	-7.00011
▁il	-7.00088
▁we	-7.01376
f	-7.01943
very	-7.02091
un	-7.02531
▁c	-7.03676
▁j	-7.0498
▁up	-7.05392
▁lui	-7.0597
▁tres	-7.06329
▁an	-7.06336
▁one	-7.07094
▁etait	-7.07987
▁had	-7.08085
▁y	-7.08526
▁si	-7.08865
▁were	-7.09609
▁L	-7.10021
▁out	-7.11148
▁so	-7.11329
▁did	-7.13634
nt	-7.14178
▁no	-7.14461
c	-7.14549
▁ete	-7.14939
▁etre	-7.16681
▁from	-7.16833
▁moi	-7.17152
▁t	-7.17299
▁ma	-7.17871
▁here	-7.17894
▁That	-7.18283
▁dit	-7.188
▁get	-7.19209
▁pense	-7.20347
▁sa	-7.21277
▁bien	-7.21707
▁How	-7.2208
▁by	-7.22167
▁temps	-7.22636
on	-7.2385
▁didn	-7.24112
▁Ne	-7.24579
▁Don	-7.25013
▁My	-7.28067
▁votre	-7.29505
▁but	-7.29958
▁going	-7.30306
▁good	-7.30388
▁peux	-7.33647
▁jamais	-7.3396
▁chose	-7.35183
▁should	-7.3535
▁ou	-7.37162
▁need	-7.37235
▁just	-7.38382
elle	-7.38743
ne	-7.39237
la	-7.39591
▁there	-7.41129
▁see	-7.42648
cette	-7.43067
▁Are	-7.43881
▁she	-7.44563
▁us	-7.4529
▁more	-7.46323
▁train	-7.4644
▁ici	-7.48386
▁than	-7.48796
▁mais	-7.4884
▁tell	-7.49962
▁been	-7.49997
▁sais	-7.50339
▁etes	-7.51221
▁S	-7.51931
▁There	-7.52241
ons	-7.52772
▁could	-7.53562
▁would	-7.53983
ent	-7.54258
▁ont	-7.55427
▁long	-7.55591
▁never	-7.56153
▁comme	-7.56386
▁come	-7.57288
▁On	-7.57482
in	-7.57779
▁vraiment	-7.58002
▁dire	-7.58045
▁peut	-7.58057
▁help	-7.59285
▁Pourquoi	-7.59409
▁beaucoup	-7.59705
▁Why	-7.59777
te	-7.59801
▁really	-7.59906
moi	-7.60837
▁car	-7.61699
▁am	-7.62059
▁es	-7.62431
▁cela	-7.62612
▁No	-7.62639
▁toi	-7.62873
▁if	-7.6301
▁who	-7.6344
▁too	-7.63688
▁ton	-7.63875
▁Sami	-7.64618
u	-7.649
▁quelque	-7.651
▁tous	-7.65112
le	-7.65713
aime	-7.66523
l	-7.66834
▁deux	-7.66897
je	-7.6695
it	-7.67542
▁take	-7.6755
▁besoin	-7.68075
o	-7.68626
▁va	-7.69086
▁now	-7.6915
▁toujours	-7.69406
▁they	-7.69697
▁got	-7.70343
▁when	-7.7048
ez	-7.70631
▁much	-7.7083
▁maison	-7.70926
▁Ca	-7.71117
al	-7.72719
ra	-7.73012
▁work	-7.73264
▁Est	-7.73353
▁monde	-7.73382
▁parler	-7.73606
▁P	-7.73852
▁avons	-7.74111
▁rien	-7.74891
ant	-7.75351
▁make	-7.75761
▁love	-7.77
b	-7.77299
▁trop	-7.77446
▁sommes	-7.7793
▁toute	-7.7991
▁peu	-7.80361
or	-7.8044
▁Mon	-7.80601
ux	-7.81061
▁ta	-7.81754
que	-7.8184
etait	-7.82152
une	-7.82168
▁right	-7.82438
▁bon	-7.82836
▁Si	-7.82931
▁Can	-7.83194
▁ses	-7.83232
ait	-7.83781
▁avez	-7.83936
▁how	-7.84168
▁Comment	-7.84522
▁voir	-7.8453
▁home	-7.84635
▁sure	-7.8472
▁must	-7.84873
▁some	-7.84999
▁day	-7.85173
▁something	-7.85548
▁people	-7.85585
etre	-7.86025
i	-7.86307
▁aller	-7.86563
▁encore	-7.86689
▁look	-7.87065
g	-7.87152
▁or	-7.8745
▁elle	-7.87774
▁say	-7.87786
▁only	-7.88178
▁any	-7.89104
as	-7.89617
▁doesn	-7.89971
▁last	-7.90116
▁money	-7.90129
▁personne	-7.90195
▁avait	-7.90554
▁Ma	-7.91153
▁aussi	-7.91493
ld	-7.91611
▁back	-7.91839
▁man	-7.92034
▁our	-7.92544
▁fois	-7.92862
▁Let	-7.93014
ation	-7.95432
▁said	-7.96018
▁lot	-7.96143
▁ai	-7.96769
▁Did	-7.97056
▁old	-7.9721
▁way	-7.97257
▁always	-7.98127
▁vie	-7.9862
▁vu	-7.99009
▁Marie	-7.99169
▁voiture	-7.9922
ur	-7.9963
▁avoir	-7.99857
▁talk	-8.00433
▁made	-8.00912
ja	-8.01153
▁Qu	-8.01393
out	-8.01394
▁them	-8.015
▁house	-8.01651
▁faut	-8.01725
▁vais	-8.02042
▁Ou	-8.02066
▁Where	-8.02218
▁anything	-8.0279
hui	-8.02915
eux	-8.03218
▁travail	-8.03785
etais	-8.03901
▁meme	-8.04019
▁dois	-8.04494
▁quoi	-8.04506
▁N	-8.04567
argent	-8.0461
▁soit	-8.04734
▁leur	-8.04763
▁As	-8.04772
▁book	-8.05122
▁French	-8.05478
▁passe	-8.06118
▁went	-8.06185
▁thought	-8.0659
▁Please	-8.06707
▁many	-8.07435
▁over	-8.07534
▁Que	-8.07693
▁eat	-8.08072
▁plait	-8.08118
▁porte	-8.08128
▁parle	-8.08219
▁Tout	-8.08288
▁speak	-8.09079
▁livre	-8.09465
ir	-8.09783
▁Who	-8.0987
▁off	-8.09995
▁two	-8.1043
▁new	-8.11339
ette	-8.1148
▁demande	-8.12071
▁live	-8.12127
▁T	-8.1259
▁still	-8.14044
▁part	-8.14521
▁well	-8.14567
x	-8.14774
▁before	-8.15083
▁trouve	-8.15097
ieux	-8.15417
▁aux	-8.15458
▁better	-8.15485
▁down	-8.15515
▁eu	-8.15551
▁francais	-8.15564
▁Qui	-8.15569
▁Have	-8.1583
▁believe	-8.16066
▁sans	-8.16118
▁little	-8.17277
▁night	-8.17743
▁vo	-8.17751
▁give	-8.17786
▁autre	-8.17959
▁mal	-8.18157
▁room	-8.18288
▁maintenant	-8.1833
▁school	-8.18452
▁question	-8.18604
▁parents	-8.18609
▁won	-8.18743
▁De	-8.18845
ie	-8.19249
▁When	-8.19323
▁bonne	-8.19562
▁quand	-8.19771
▁their	-8.19786
▁grand	-8.19795
▁today	-8.19882
▁feel	-8.20135
▁into	-8.20303
is	-8.21078
able	-8.21486
▁chez	-8.21961
▁seule	-8.2216
ssez	-8.23043
air	-8.23422
▁happy	-8.23552
▁place	-8.24058
▁moment	-8.24204
aimerais	-8.24362
▁juste	-8.24551
▁dis	-8.24967
▁pere	-8.2505
▁life	-8.25384
▁Boston	-8.2631
p	-8.26401
se	-8.26449
an	-8.2761
▁seul	-8.28467
▁aujourd	-8.28764
▁find	-8.292
▁again	-8.2948
▁other	-8.29747
▁doing	-8.29756
autre	-8.30019
ci	-8.30089
▁friend	-8.30281
▁father	-8.30411
▁re	-8.30448
ok	-8.30701
▁trois	-8.3086
▁En	-8.30871
▁notre	-8.30918
▁Every	-8.30925
▁please	-8.31159
▁understand	-8.31234
▁where	-8.31272
eau	-8.31552
ement	-8.31702
▁jour	-8.31789
▁gens	-8.31993
▁put	-8.32412
ire	-8.32417
▁hard	-8.32693
▁name	-8.32831
▁left	-8.33238
▁arrive	-8.33461
▁fais	-8.33543
▁petit	-8.33904
ar	-8.33906
▁enfants	-8.33977
▁job	-8.34086
▁fut	-8.34157
▁avant	-8.34275
▁point	-8.35668
ine	-8.35729
▁prendre	-8.35774
▁does	-8.35923
▁mange	-8.36068
▁saw	-8.36486
▁simple	-8.36494
age	-8.36626
▁English	-8.3713
▁Avez	-8.3721
▁leave	-8.37304
w	-8.37929
▁Quel	-8.37973
▁hier	-8.38044
▁three	-8.38094
ils	-8.38106
▁first	-8.39229
tte	-8.39397
▁dog	-8.39802
avais	-8.3993
▁tomorrow	-8.40379
▁probleme	-8.40574
▁fille	-8.40605
▁isn	-8.40671
▁seem	-8.40777
▁chien	-8.41032
▁apres	-8.41106
▁aime	-8.41383
▁read	-8.41701
▁His	-8.41909
▁every	-8.42136
▁bus	-8.42877
▁nuit	-8.43149
▁buy	-8.43456
▁years	-8.43683
▁heures	-8.43702
▁demain	-8.43807
ite	-8.43883
▁wanted	-8.43898
us	-8.44088
▁ever	-8.44541
▁change	-8.44653
ont	-8.44843
▁mere	-8.45094
▁Personne	-8.45284
▁femme	-8.4583
▁homme	-8.45859
▁manger	-8.46402
puis	-8.46634
cause	-8.46638
ic	-8.46708
li	-8.46709
▁friends	-8.47007
▁ans	-8.47405
▁enough	-8.47564
▁yesterday	-8.47664
▁call	-8.48182
▁mother	-8.48278
▁asked	-8.48368
▁B	-8.48539
▁mes	-8.48575
iez	-8.48662
▁In	-8.48667
▁pu	-8.48704
▁nothing	-8.48856
▁mort	-8.4886
▁everything	-8.48915
▁ceci	-8.49226
venir	-8.49383
nous	-8.49641
▁alone	-8.49719
▁came	-8.49786
▁away	-8.49865
▁langue	-8.50443
ecole	-8.5098
▁plan	-8.51317
▁b	-8.51881
▁problem	-8.52357
▁soir	-8.52609
▁after	-8.5266
ch	-8.53202
▁Be	-8.53254
ri	-8.53535
▁devrais	-8.53598
ou	-8.5379
▁nom	-8.54311
▁week	-8.54352
▁veut	-8.5502
▁thing	-8.55203
▁telephone	-8.55498
ombien	-8.56171
▁chance	-8.56463
▁next	-8.56474
▁derniere	-8.56474
uch	-8.56507
▁sens	-8.56529
▁partir	-8.56623
▁door	-8.56631
▁world	-8.57051
▁children	-8.57059
▁Quan	-8.57242
▁hope	-8.57417
▁pris	-8.5763
▁drink	-8.57833
▁savoir	-8.57933
▁Ete	-8.58194
▁happened	-8.58314
▁water	-8.58324
▁Your	-8.58354
▁F	-8.5851
▁already	-8.5852
▁things	-8.58688
▁cha	-8.58934
▁non	-8.58948
▁age	-8.59214
▁piece	-8.5933
▁being	-8.59532
body	-8.59677
▁done	-8.59708
▁donne	-8.59725
▁Quelle	-8.59905
▁turn	-8.59952
▁stay	-8.60128
▁f	-8.60484
▁semaine	-8.6062
▁Sa	-8.60704
▁E	-8.60883
▁All	-8.60886
one	-8.60914
▁best	-8.60933
▁comment	-8.60995
▁Y	-8.61051
▁D	-8.61351
▁found	-8.6144
▁table	-8.61964
arrive	-8.62045
▁difficile	-8.6225
▁pensais	-8.62252
▁quelqu	-8.62979
▁choses	-8.63066
▁souven	-8.6328
▁raison	-8.63291
▁wrong	-8.63386
▁Son	-8.63537
▁hear	-8.63685
▁idee	-8.63856
▁ask	-8.6388
avez	-8.64005
▁why	-8.64431
▁important	-8.64521
▁ten	-8.64599
▁peur	-8.64654
temps	-8.64858
▁may	-8.65134
▁sait	-8.65274
▁open	-8.65275
▁teacher	-8.65546
▁answer	-8.65698
▁use	-8.66027
▁used	-8.661
▁ami	-8.66117
th	-8.66675
▁nouveau	-8.66738
▁idea	-8.6698
▁jours	-8.66996
▁even	-8.67513
avoir	-8.67617
▁often	-8.67666
▁late	-8.67682
rent	-8.67746
▁grande	-8.68166
▁gave	-8.68412
▁kind	-8.68742
che	-8.68776
▁morning	-8.6883
▁pouvez	-8.69061
ter	-8.69069
▁mind	-8.69173
▁keep	-8.69272
▁beautiful	-8.6938
▁ville	-8.69442
▁M	-8.69503
▁play	-8.69666
▁lost	-8.69825
▁semble	-8.69864
▁great	-8.69982
▁tes	-8.70048
▁seen	-8.70179
▁Dan	-8.70226
▁bad	-8.70399
▁yet	-8.70637
ive	-8.7065
▁remember	-8.71386
▁same	-8.71412
▁police	-8.71844
▁e	-8.71929
me	-8.72075
ro	-8.72076
▁walk	-8.72553
▁trouver	-8.72575
ici	-8.72705
ge	-8.73081
▁busy	-8.73182
▁chambre	-8.73205
▁rester	-8.73517
▁possible	-8.73583
▁jusqu	-8.73666
k	-8.73823
▁Puis	-8.73894
de	-8.73898
el	-8.73903
pe	-8.73962
▁matin	-8.74009
▁young	-8.74074
heureux	-8.7493
▁these	-8.74998
▁accident	-8.75157
▁frere	-8.7529
▁achete	-8.75567
▁big	-8.7575
▁quelques	-8.76062
▁year	-8.76109
▁pourquoi	-8.76347
▁sera	-8.7636
aider	-8.76506
▁own	-8.76703
▁Would	-8.76821
▁pendant	-8.77027
▁looking	-8.77092
▁con	-8.7723
▁alle	-8.77609
▁entre	-8.77645
▁sister	-8.77932
▁travaille	-8.77961
▁reste	-8.78012
▁moin	-8.78017
▁amis	-8.78295
▁perdu	-8.78581
▁garcon	-8.7862
▁tired	-8.7887
▁May	-8.79752
▁doit	-8.79757
aient	-8.79789
▁show	-8.80171
▁entendu	-8.80366
end	-8.80459
▁hate	-8.80697
▁sorry	-8.80706
▁commence	-8.80729
sse	-8.80754
oir	-8.8076
▁pays	-8.80934
▁pres	-8.81055
▁heard	-8.81095
▁lettre	-8.81322
▁afraid	-8.81691
▁minutes	-8.81771
▁dur	-8.82183
▁jeune	-8.8227
▁care	-8.8236
v	-8.82486
▁stop	-8.82568
▁secret	-8.83076
▁laisse	-8.83226
▁cet	-8.83403
h	-8.83611
▁mis	-8.8387
▁joue	-8.84023
▁anyone	-8.84267
▁lit	-8.84345
▁To	-8.84441
▁questions	-8.84455
▁try	-8.84478
▁crois	-8.84649
▁soi	-8.8499
▁knew	-8.85247
▁pay	-8.85306
▁film	-8.85313
▁most	-8.85328
▁etaient	-8.85544
▁watch	-8.85573
▁cause	-8.85676
▁O	-8.86016
▁around	-8.86026
▁cold	-8.86106
▁ces	-8.86327
ate	-8.86337
▁main	-8.86387
▁quelle	-8.86434
▁certain	-8.86603
ue	-8.86622
▁mot	-8.86836
▁person	-8.86928
▁yourself	-8.86942
▁rain	-8.87015
ul	-8.87201
ion	-8.87324
▁while	-8.87476
espere	-8.87839
ig	-8.87852
if	-8.87917
▁facile	-8.88002
▁end	-8.88513
▁cafe	-8.88538
▁voulais	-8.88541
▁learn	-8.88715
▁soon	-8.88816
be	-8.89361
▁phrase	-8.89607
▁brother	-8.89731
▁hand	-8.89762
▁bought	-8.89878
▁vrai	-8.89897
▁girl	-8.90017
▁true	-8.90508
mp	-8.9062
meme	-8.90815
etes	-8.90818
▁another	-8.9083
aurais	-8.90977
▁party	-8.90992
▁cur	-8.91039
▁wish	-8.91081
▁Es	-8.91147
▁few	-8.91378
▁partie	-8.91825
▁bed	-8.9188
▁far	-8.92007
▁canno	-8.92076
▁verite	-8.92214
▁heure	-8.92302
▁voulez	-8.92934
▁rendre	-8.92962
ions	-8.93021
▁famille	-8.93602
▁aide	-8.93719
▁language	-8.93723
▁let	-8.93775
▁France	-8.94166
▁tard	-8.94256
▁truth	-8.9431
▁nouvelle	-8.94315
▁fete	-8.94352
▁prie	-8.94436
▁chat	-8.945
ut	-8.94751
▁sleep	-8.9479
▁which	-8.94878
▁croire	-8.94883
▁country	-8.95023
▁myself	-8.9516
▁face	-8.95175
man	-8.9529
ous	-8.953
elles	-8.95453
▁retard	-8.95734
▁letter	-8.9584
ast	-8.95906
toi	-8.96067
▁petite	-8.96089
▁ready	-8.9628
▁different	-8.96305
▁jouer	-8.96521
▁John	-8.97325
▁Some	-8.97395
▁haven	-8.97799
▁p	-8.9812
▁matter	-8.98377
▁fort	-8.98458
co	-8.98572
▁Layla	-8.98648
▁livres	-8.9885
▁invite	-8.99417
▁hurt	-8.99538
▁present	-8.99559
▁h	-8.99572
▁talking	-8.99608
▁word	-8.99635
▁write	-8.99673
▁able	-8.99868
▁food	-8.99873
ol	-9.00426
▁nice	-9.00442
▁suppose	-9.0088
▁doctor	-9.00889
▁boy	-9.00953
▁else	-9.0104
▁aider	-9.01081
▁wait	-9.01484
▁Could	-9.01495
▁parti	-9.01617
▁Paris	-9.01669
▁Re	-9.01703
▁sous	-9.01839
homme	-9.02037
▁married	-9.02131
▁once	-9.02514
▁family	-9.02873
▁books	-9.02903
▁happen	-9.02971
▁danger	-9.03315
▁tried	-9.03418
▁contre	-9.03509
▁amie	-9.03846
▁voyage	-9.0393
▁fun	-9.04164
accord	-9.04212
▁telle	-9.04472
▁reve	-9.04506
▁six	-9.04517
vi	-9.04662
▁study	-9.04706
▁coffee	-9.04741
▁station	-9.04749
▁start	-9.04851
▁those	-9.05082
▁photo	-9.05093
▁dix	-9.05247
▁passer	-9.05334
▁connais	-9.05663
▁child	-9.05706
▁yeux	-9.05772
▁days	-9.05773
▁o	-9.05793
▁regarde	-9.05877
▁cat	-9.05978
ique	-9.06037
▁sujet	-9.06166
▁coming	-9.0639
tion	-9.06557
▁Et	-9.06796
▁g	-9.06831
▁coup	-9.07052
▁Pour	-9.0711
▁prefere	-9.07111
▁tete	-9.07128
eur	-9.0726
▁V	-9.07353
▁attention	-9.07545
▁mine	-9.07687
▁pourrait	-9.07997
▁venu	-9.08001
▁light	-9.08021
▁phone	-9.08033
▁pret	-9.08145
au	-9.08517
▁travailler	-9.08679
▁devons	-9.09016
▁parce	-9.09035
▁pouvons	-9.09081
▁each	-9.09086
▁pain	-9.0913
▁wife	-9.0924
▁looks	-9.09279
▁ecrit	-9.09457
▁red	-9.09465
▁meilleur	-9.09506
▁savais	-9.09856
▁vue	-9.0987
▁occupe	-9.09996
▁dernier	-9.10045
▁fini	-9.10106
▁early	-9.10417
▁bureau	-9.10565
▁met	-9.10591
▁miss	-9.10631
▁run	-9.10687
▁marche	-9.10735
avantage	-9.10878
▁sortir	-9.11037
▁lie	-9.11053
▁maniere	-9.11074
▁difficult	-9.11152
ance	-9.11218
▁cote	-9.1131
▁large	-9.1131
▁meet	-9.11353
▁anglais	-9.11388
▁po	-9.1148
ix	-9.11524
▁belle	-9.11607
thing	-9.11624
▁might	-9.11829
▁tennis	-9.12085
▁under	-9.12093
▁fils	-9.12267
▁erreur	-9.12389
▁through	-9.12412
ia	-9.12484
aux	-9.12575
▁restaurant	-9.12582
anglais	-9.12593
id	-9.12652
▁propre	-9.12947
▁someone	-9.13161
▁journee	-9.13265
ies	-9.13673
▁forget	-9.13759
▁vivre	-9.13835
▁nombre	-9.13858
getting	-9.14079
▁eyes	-9.14328
di	-9.14589
▁malade	-9.14829
▁woman	-9.15515
ide	-9.15612
▁Japan	-9.15687
ting	-9.15771
▁high	-9.15897
▁small	-9.16074
▁aucun	-9.16129
▁Japon	-9.16165
▁force	-9.16212
ise	-9.16313
▁compte	-9.16404
▁decide	-9.16548
▁together	-9.16569
▁vit	-9.166
▁fatigue	-9.16643
▁easy	-9.16746
▁oublie	-9.16784
▁vite	-9.16984
▁opinion	-9.16991
▁called	-9.17164
▁premier	-9.1718
to	-9.17293
heure	-9.17519
▁anymore	-9.17993
ry	-9.18067
ity	-9.18136
▁fire	-9.18246
nce	-9.18387
▁become	-9.18534
▁professeur	-9.18713
▁plu	-9.18751
▁voulait	-9.18753
gu	-9.18796
ign	-9.18971
avons	-9.19129
▁decision	-9.19257
▁enfant	-9.19449
▁almos	-9.19453
▁pa	-9.19542
▁bit	-9.19937
▁manque	-9.19991
▁meeting	-9.20017
ist	-9.2002
▁refuse	-9.20169
qu	-9.20176
▁Does	-9.20194
ver	-9.20344
▁lorsque	-9.20481
▁near	-9.20532
▁pouvoir	-9.20538
▁glad	-9.20597
▁bu	-9.20647
▁men	-9.20658
▁himself	-9.20721
▁alors	-9.20741
▁Stop	-9.20906
▁drive	-9.20966
▁medecin	-9.2109
▁vieux	-9.21432
mi	-9.21564
▁free	-9.21672
ouvez	-9.21673
▁fit	-9.21734
▁rencontre	-9.21742
▁devrait	-9.22213
▁wouldn	-9.22356
▁Japanese	-9.22395
▁sick	-9.224
▁started	-9.22563
▁pretty	-9.22586
um	-9.22657
▁game	-9.22667
▁premiere	-9.22685
▁situation	-9.2277
▁dinner	-9.2281
▁rapide	-9.23125
▁Tokyo	-9.23146
▁devez	-9.23163
ante	-9.23387
▁rest	-9.23421
▁aucune	-9.23555
▁quel	-9.23824
▁enjoy	-9.23905
▁devoir	-9.23965
▁Go	-9.23969
▁faites	-9.23997
▁window	-9.2429
▁montre	-9.24445
▁Our	-9.24453
▁ex	-9.24454
ure	-9.24622
▁died	-9.24629
ful	-9.24958
▁presqu	-9.2506
▁heureuse	-9.25066
op	-9.25076
ard	-9.25159
▁television	-9.25247
▁beau	-9.25306
▁mauvais	-9.25364
▁viens	-9.25465
▁Her	-9.25577
▁hair	-9.2588
ated	-9.25907
▁pro	-9.25926
▁attend	-9.25991
▁Au	-9.26043
▁deteste	-9.26158
▁vers	-9.26208
▁reponse	-9.26215
▁heart	-9.26234
tot	-9.26309
▁having	-9.26471
ca	-9.26562
▁sound	-9.26608
▁vient	-9.26736
▁fell	-9.26807
aide	-9.27007
▁Take	-9.27077
▁etudiant	-9.27127
▁dollars	-9.27144
aire	-9.27172
▁felt	-9.27193
▁close	-9.27309
▁gone	-9.27356
▁Par	-9.27415
▁sentence	-9.27427
▁Tatoeba	-9.27587
▁regarder	-9.27593
▁waiting	-9.2764
less	-9.2775
aller	-9.27981
▁fruit	-9.27983
▁voul	-9.28104
▁number	-9.28182
▁office	-9.282
▁Tell	-9.28273
▁colere	-9.28381
▁fast	-9.2848
▁against	-9.28678
▁donner	-9.28751
▁wants	-9.28755
▁visit	-9.2899
▁gare	-9.29083
▁comprendre	-9.29097
▁serait	-9.29216
▁hot	-9.29342
▁mettre	-9.29386
▁Give	-9.29393
▁trying	-9.29884
▁Merci	-9.29985
▁Get	-9.29994
ap	-9.30439
▁words	-9.30568
▁wonder	-9.30586
▁vas	-9.30594
▁voudrais	-9.30595
▁aren	-9.30651
▁city	-9.30695
▁combien	-9.3078
▁devriez	-9.30797
▁boire	-9.30814
▁rend	-9.31033
▁acheter	-9.31136
▁essaye	-9.31282
▁head	-9.31323
▁fenetre	-9.31411
▁mean	-9.31708
▁longer	-9.31819
▁both	-9.31894
fin	-9.31954
▁lu	-9.32157
▁since	-9.32221
▁affaire	-9.32252
▁Just	-9.32269
▁musique	-9.32442
▁nourriture	-9.32443
▁per	-9.32505
▁Tous	-9.32523
▁froid	-9.32532
▁story	-9.32649
▁loin	-9.32759
ma	-9.32847
▁Des	-9.32929
▁classe	-9.33007
▁die	-9.33217
va	-9.3341
▁Come	-9.3354
▁working	-9.33602
▁dejeuner	-9.33648
use	-9.33648
▁reading	-9.33756
▁apprendre	-9.33897
▁dream	-9.33939
ever	-9.34129
▁riche	-9.34149
na	-9.34228
▁nos	-9.34271
▁Man	-9.34277
▁Veuille	-9.34324
vant	-9.34363
▁Will	-9.34553
▁fou	-9.34595
▁listen	-9.34711
▁reason	-9.34813
▁music	-9.34955
▁Me	-9.35061
im	-9.35063
▁careful	-9.35089
▁fin	-9.35152
▁complete	-9.35155
▁peuvent	-9.35189
▁knows	-9.35195
tic	-9.35226
▁ensemble	-9.35237
▁visite	-9.35398
▁tonight	-9.3542
euse	-9.35506
▁pre	-9.35511
▁ran	-9.35619
▁cheveux	-9.35814
▁desole	-9.35934
▁demander	-9.36041
▁co	-9.3616
adore	-9.36189
▁cours	-9.3621
▁lives	-9.36279
ow	-9.36285
▁until	-9.36387
hi	-9.36394
▁everyone	-9.36507
▁hotel	-9.36559
▁piano	-9.36675
▁pri	-9.36736
our	-9.36757
ff	-9.36929
▁propos	-9.36939
▁celui	-9.37008
con	-9.3701
▁soyez	-9.37226
▁daughter	-9.37326
▁tant	-9.374
gan	-9.37675
midi	-9.37761
▁comprends	-9.37832
▁playing	-9.38143
▁ainsi	-9.38188
▁travel	-9.382
▁weather	-9.382
▁ago	-9.38222
▁impossible	-9.38229
▁full	-9.38238
▁feu	-9.38398
ru	-9.38538
▁recu	-9.38645
▁prix	-9.3867
▁autant	-9.38944
▁regle	-9.39194
▁short	-9.39304
iste	-9.39459
▁pen	-9.39489
cu	-9.39543
▁eleve	-9.39853
▁vois	-9.39908
▁nager	-9.39914
▁living	-9.39973
▁confiance	-9.39975
▁swim	-9.40421
▁serai	-9.40553
▁dead	-9.4083
▁dispose	-9.4085
▁finished	-9.40854
▁fleur	-9.4091
ignore	-9.40937
▁chemin	-9.40939
▁spend	-9.40943
▁promise	-9.41031
▁students	-9.41044
▁difference	-9.41096
▁Dieu	-9.41109
sh	-9.41109
▁agree	-9.41217
▁ni	-9.41244
▁death	-9.41246
lu	-9.41268
▁trouble	-9.41324
▁grow	-9.41559
▁mois	-9.41597
▁puisse	-9.41647
▁angry	-9.41776
▁snow	-9.41776
▁born	-9.41779
▁pouvai	-9.41788
▁surprise	-9.42068
▁minute	-9.42086
▁envie	-9.42193
▁sent	-9.42228
▁laisser	-9.42371
▁Comme	-9.42604
▁tombe	-9.42671
▁class	-9.4277
▁At	-9.42871
▁gros	-9.42878
▁fai	-9.42883
▁tree	-9.43044
▁mots	-9.43097
ier	-9.43305
▁Se	-9.43412
▁cinq	-9.43477
▁five	-9.43652
ni	-9.43776
ient	-9.43799
▁type	-9.43846
ac	-9.43877
▁So	-9.43886
he	-9.44027
▁puis	-9.44079
▁hours	-9.44264
▁trust	-9.44272
▁histoire	-9.44392
part	-9.44484
▁makes	-9.4454
▁town	-9.44552
▁consider	-9.44593
▁eating	-9.44605
avait	-9.44664
▁One	-9.44669
▁movie	-9.44706
▁dress	-9.4475
▁velo	-9.44778
▁TV	-9.44784
▁between	-9.45015
▁rich	-9.45225
▁song	-9.45306
▁rouge	-9.45485
▁verre	-9.45757
ian	-9.45927
▁conduire	-9.45958
▁New	-9.46168
▁reunion	-9.46204
▁vin	-9.46337
▁Notre	-9.46391
▁lieu	-9.46409
▁four	-9.46517
▁appele	-9.46567
▁second	-9.46692
rais	-9.46824
fois	-9.46836
▁mauvaise	-9.47004
ther	-9.47059
bo	-9.47091
▁br	-9.47149
▁surprised	-9.4729
▁Mr	-9.47348
▁computer	-9.47391
▁broke	-9.47414
▁ferme	-9.47456
▁Dis	-9.47523
▁diner	-9.4764
ete	-9.4771
go	-9.47775
▁arrived	-9.4781
▁mistake	-9.47926
▁prete	-9.47963
▁order	-9.48551
▁message	-9.48606
▁radio	-9.48647
importe	-9.48737
ers	-9.48754
▁lunch	-9.48847
▁droit	-9.48855
▁safe	-9.48973
▁stupid	-9.48996
▁appris	-9.49092
ile	-9.49099
rons	-9.49238
▁usual	-9.49414
mment	-9.49447
▁chaud	-9.49795
▁picture	-9.49916
▁endroit	-9.49996
ex	-9.50017
pp	-9.50049
▁produit	-9.50074
▁dormir	-9.50154
▁terre	-9.50214
▁follow	-9.50271
▁guerre	-9.50322
▁war	-9.50598
▁pourrais	-9.50657
ler	-9.50775
▁soleil	-9.50821
▁etiez	-9.50837
▁content	-9.50919
ph	-9.50957
▁pluto	-9.51223
▁says	-9.51364
▁chanson	-9.51569
▁caught	-9.51609
▁gra	-9.51683
om	-9.51779
▁etais	-9.51787
▁behind	-9.5182
▁trip	-9.51876
▁Laisse	-9.51976
les	-9.52294
pi	-9.52317
▁patient	-9.52325
▁conseil	-9.5253
pa	-9.52564
▁Voulez	-9.52578
▁Mes	-9.52609
▁tea	-9.52624
▁stand	-9.52631
▁public	-9.52809
▁For	-9.52914
▁gagne	-9.5296
▁likes	-9.52963
▁Dans	-9.53162
▁ferais	-9.53233
▁real	-9.533
▁machine	-9.53341
▁R	-9.53348
▁cost	-9.53386
▁interesting	-9.5342
▁cut	-9.53431
▁company	-9.53853
▁hommes	-9.5408
▁Vot	-9.54098
▁forgot	-9.541
eep	-9.54106
▁experience	-9.54133
mes	-9.54366
▁figure	-9.54368
▁Oh	-9.54405
▁Quelqu	-9.54422
▁decided	-9.5464
▁whole	-9.54699
no	-9.54712
hors	-9.54829
pr	-9.54905
▁peine	-9.54908
▁coute	-9.55134
▁ri	-9.55173
▁rue	-9.55222
and	-9.55359
▁God	-9.55391
▁neige	-9.55434
apprecie	-9.55465
appelle	-9.55861
vo	-9.55899
▁sing	-9.55909
▁business	-9.55929
▁act	-9.56183
▁explain	-9.56192
▁sun	-9.56211
▁Ta	-9.56231
▁fish	-9.56291
▁thinking	-9.56307
▁Non	-9.56344
▁park	-9.56416
▁Look	-9.56454
▁probable	-9.5646
▁information	-9.56476
▁prochaine	-9.56478
▁prison	-9.56506
▁exacte	-9.56574
annee	-9.5665
▁penser	-9.56718
▁break	-9.56719
▁Cet	-9.56758
▁then	-9.56794
ho	-9.56838
▁G	-9.56914
sante	-9.57053
▁win	-9.57114
▁lose	-9.57273
og	-9.57285
▁making	-9.57319
▁student	-9.57323
▁ceux	-9.57353
bas	-9.57387
▁goes	-9.57395
▁cherche	-9.57783
▁capable	-9.57787
▁box	-9.57812
▁Lorsqu	-9.58051
▁cher	-9.58055
▁sorte	-9.58087
▁touch	-9.58103
nis	-9.58325
▁hands	-9.58344
▁prefer	-9.58517
amour	-9.58692
▁baby	-9.58854
▁genre	-9.58855
▁devrions	-9.58875
▁hospital	-9.59124
▁spoke	-9.59128
▁facon	-9.59246
▁advice	-9.59396
▁bas	-9.59569
rait	-9.59569
ob	-9.59574
▁month	-9.59777
▁fall	-9.59891
▁cuisine	-9.59903
▁fond	-9.6003
▁cake	-9.60124
▁poor	-9.6028
▁font	-9.60305
ill	-9.60464
▁hat	-9.60476
▁Hi	-9.60723
▁vont	-9.60832
▁cent	-9.60972
▁Which	-9.61037
iv	-9.61293
▁catch	-9.61378
▁offer	-9.6144
▁boite	-9.61741
▁taxi	-9.61824
▁bicycle	-9.6184
▁probabl	-9.61863
▁street	-9.61868
quel	-9.61961
▁accept	-9.62176
▁rencontrer	-9.62292
▁devenir	-9.62298
ish	-9.62322
▁blesse	-9.62353
ins	-9.62383
▁afternoon	-9.62426
▁summer	-9.62426
▁fier	-9.62622
ale	-9.62706
▁payer	-9.62769
▁wine	-9.62876
▁nouvelles	-9.63272
▁pe	-9.63491
▁derriere	-9.63551
▁route	-9.63551
▁also	-9.63552
▁clean	-9.63663
ick	-9.63813
▁favorite	-9.63854
imp	-9.63907
▁Peut	-9.63927
▁interested	-9.6397
▁special	-9.64012
▁paper	-9.64129
▁rare	-9.64138
▁taking	-9.64157
▁libre	-9.64405
▁hungry	-9.64407
▁immediate	-9.64589
▁securit	-9.64692
▁save	-9.64703
▁test	-9.64846
cha	-9.64937
▁saying	-9.64967
▁clothes	-9.64976
▁tour	-9.65009
▁final	-9.65055
▁changer	-9.65192
▁concert	-9.65263
▁charge	-9.6527
▁poisson	-9.65283
▁quatre	-9.65347
▁court	-9.65655
▁supposed	-9.65686
▁gateau	-9.6569
▁Fais	-9.6582
ally	-9.65829
▁travers	-9.65915
▁meilleure	-9.65952
▁attendre	-9.66081
quelle	-9.6611
▁connait	-9.66124
▁milk	-9.66133
▁arrete	-9.66148
▁front	-9.66159
▁comp	-9.66215
▁vole	-9.66287
▁ordinateur	-9.6635
▁lumiere	-9.66421
▁killed	-9.66427
▁later	-9.66545
▁magasin	-9.66712
▁kill	-9.66714
▁And	-9.66818
▁strong	-9.66863
▁correct	-9.67004
ab	-9.67053
▁vis	-9.6722
▁bo	-9.67469
▁fumer	-9.67533
▁thank	-9.67572
▁reussi	-9.67581
▁black	-9.67592
▁president	-9.67592
▁idiot	-9.67625
▁times	-9.67631
up	-9.67709
tra	-9.67774
▁serais	-9.6779
A	-9.6793
▁ecrire	-9.68162
conque	-9.68186
▁allons	-9.68213
▁worry	-9.68291
po	-9.68366
▁bar	-9.68437
▁plaisir	-9.6848
▁cadeau	-9.68518
per	-9.68887
▁vieille	-9.68944
▁news	-9.68968
▁chanter	-9.69032
ible	-9.69044
ag	-9.69092
▁exactly	-9.69105
▁choi	-9.69356
▁others	-9.6936
▁numero	-9.69375
▁pauvre	-9.69377
▁chi	-9.69434
▁mains	-9.69443
▁date	-9.69492
▁hit	-9.69623
▁prochain	-9.69649
▁German	-9.69658
▁health	-9.69658
▁surpris	-9.69717
▁garden	-9.6996
▁check	-9.69977
▁anybody	-9.70091
▁depend	-9.70098
ille	-9.70259
▁white	-9.70303
▁bois	-9.70304
ness	-9.70324
ster	-9.70521
▁bebe	-9.7054
▁necessaire	-9.70582
▁guess	-9.70582
▁certaine	-9.70759
▁pouvais	-9.70764
▁fail	-9.70782
▁dites	-9.70819
▁filles	-9.70819
▁bring	-9.70823
▁respect	-9.70834
kept	-9.7088
▁rentre	-9.70963
▁sac	-9.71045
▁envoye	-9.71091
ot	-9.71115
▁perfect	-9.7117
▁river	-9.71203
▁crime	-9.71227
▁outside	-9.71235
▁dance	-9.71261
▁shoes	-9.71728
▁bruit	-9.71803
▁case	-9.71855
▁termine	-9.71887
ha	-9.71951
▁quit	-9.72006
▁Ton	-9.72069
asse	-9.72099
▁senti	-9.72335
ng	-9.72345
art	-9.72404
▁marcher	-9.72415
came	-9.72667
▁girlfriend	-9.72729
tique	-9.72795
ck	-9.72886
▁American	-9.729
▁lait	-9.72922
▁horse	-9.73001
▁proud	-9.7304
▁continue	-9.73097
▁team	-9.73113
ants	-9.73219
▁vetement	-9.73351
▁advise	-9.73352
▁boulot	-9.73353
▁projet	-9.73355
▁homework	-9.73366
▁perdre	-9.73632
▁village	-9.73664
▁fasse	-9.73695
▁pluie	-9.73754
▁problemes	-9.73787
▁assis	-9.7383
▁vacances	-9.73977
▁report	-9.7399
qui	-9.74057
▁mourir	-9.74092
▁Cha	-9.74191
rit	-9.74209
▁air	-9.7424
▁pleuv	-9.74292
▁quickly	-9.74321
▁tomber	-9.74335
▁intelligent	-9.74471
▁jardin	-9.74607
▁store	-9.74609
▁key	-9.74653
ling	-9.7473
▁future	-9.7488
ial	-9.7496
▁japonais	-9.74987
▁plein	-9.75028
▁arbre	-9.75102
▁moyen	-9.75177
▁smoke	-9.75241
▁etudier	-9.7534
▁hour	-9.75351
▁th	-9.75377
entre	-9.75401
▁argent	-9.75412
▁lis	-9.75481
▁sorti	-9.75491
▁pleurer	-9.75553
▁Bien	-9.75575
▁Arrete	-9.75782
▁return	-9.75882
▁finish	-9.75928
ach	-9.75987
▁casse	-9.75996
▁eux	-9.76082
▁count	-9.76239
▁entendre	-9.763
▁wrote	-9.76521
▁mesure	-9.76592
ight	-9.76729
ke	-9.76767
▁savait	-9.76818
ciel	-9.76841
▁rather	-9.76845
▁biere	-9.76857
▁Laissez	-9.7697
▁watching	-9.77001
▁crazy	-9.77168
▁journal	-9.77521
▁Apres	-9.77545
▁fix	-9.77555
▁essayer	-9.77729
▁sense	-9.77887
▁cook	-9.77978
▁paye	-9.77979
▁occupee	-9.77981
sion	-9.78028
rac	-9.78046
▁Mais	-9.78065
▁expensive	-9.78145
▁paid	-9.78168
▁apprecie	-9.78388
▁cle	-9.78413
▁breakfast	-9.78472
▁plusieur	-9.78477
▁Ses	-9.78559
▁speaks	-9.78655
▁faisait	-9.78662
▁star	-9.78794
▁rappelle	-9.78927
▁tele	-9.79005
▁annee	-9.7902
▁pied	-9.7905
▁chercher	-9.79152
▁An	-9.79228
▁fat	-9.79287
▁souhaite	-9.79346
▁serious	-9.79362
▁etudie	-9.79392
▁move	-9.79541
▁ver	-9.79668
▁bras	-9.79776
▁Australia	-9.79795
▁smoking	-9.79795
▁robe	-9.7981
gre	-9.79859
▁marie	-9.79862
▁Bo	-9.79915
▁celle	-9.79998
▁aurait	-9.8005
▁repondre	-9.80063
time	-9.80065
▁match	-9.80137
▁devenu	-9.80202
▁couleur	-9.80484
▁rire	-9.805
▁deal	-9.80584
▁noir	-9.80645
▁emploi	-9.80696
▁vol	-9.80789
▁prend	-9.80885
▁doute	-9.81008
▁voisin	-9.81038
▁tall	-9.8135
▁imagine	-9.81396
▁guy	-9.81402
riez	-9.81415
▁dark	-9.81474
▁wear	-9.81521
▁parc	-9.8166
▁known	-9.81661
▁compris	-9.81813
▁speaking	-9.81876
▁carte	-9.81981
▁fact	-9.82147
▁pick	-9.82173
▁comes	-9.82182
▁gagner	-9.82229
gne	-9.82257
▁chaussures	-9.82344
▁send	-9.82349
▁femmes	-9.82399
▁Etats	-9.825
▁bag	-9.82512
▁strange	-9.82523
▁tire	-9.82665
▁su	-9.82755
▁ro	-9.828
▁half	-9.82836
▁enter	-9.82865
▁lorsqu	-9.82994
▁ha	-9.83034
▁eaten	-9.83121
▁sort	-9.83139
▁auparavant	-9.83179
▁birthday	-9.8318
ction	-9.8326
▁Ri	-9.83324
▁evening	-9.83448
rought	-9.83524
ule	-9.83525
▁spent	-9.83573
▁arriver	-9.83576
▁drunk	-9.8387
▁terrible	-9.83896
▁grosse	-9.83994
▁etions	-9.84004
▁choice	-9.84033
▁side	-9.84072
▁montrer	-9.84139
▁feeling	-9.84143
▁vent	-9.84151
▁Ces	-9.84156
▁After	-9.84218
▁service	-9.84322
▁sat	-9.84342
▁stupide	-9.84351
▁fus	-9.84427
hopital	-9.84566
▁nombreuse	-9.84586
▁Thank	-9.84591
▁human	-9.84756
▁poste	-9.84771
▁appreciate	-9.84916
▁works	-9.84989
ateur	-9.85055
habitude	-9.85127
▁detail	-9.85183
▁written	-9.85266
▁chapeau	-9.85267
▁commencer	-9.85285
▁languages	-9.85314
▁allez	-9.85364
▁rep	-9.85371
▁changed	-9.854
▁pretend	-9.85427
▁seat	-9.85461
ieme	-9.85768
▁wearing	-9.8582
▁solution	-9.85972
▁studying	-9.86052
▁York	-9.86069
ame	-9.8607
▁vaut	-9.86102
▁foreign	-9.86329
▁Al	-9.86406
▁page	-9.86415
os	-9.86646
▁blanc	-9.86674
▁Sunday	-9.86682
▁annees	-9.86875
acheter	-9.86912
histoire	-9.86915
▁asleep	-9.87039
▁Aucun	-9.87046
▁rapport	-9.87062
▁building	-9.87087
ka	-9.87099
▁allee	-9.87189
▁boss	-9.87251
▁beer	-9.87265
▁ju	-9.87344
▁Faites	-9.87398
▁course	-9.87562
▁dictionnaire	-9.87757
accident	-9.87795
ade	-9.87798
▁utiliser	-9.87894
▁cheval	-9.87966
▁mari	-9.88054
▁nature	-9.88066
▁fine	-9.88112
▁rentrer	-9.88139
ole	-9.88191
pt	-9.88236
▁road	-9.88482
▁bateau	-9.88519
▁power	-9.8855
▁perd	-9.88621
▁sea	-9.88687
agit	-9.88806
ba	-9.88824
▁absent	-9.88845
▁along	-9.88845
▁prepare	-9.8903
▁clear	-9.89137
▁soin	-9.89287
▁Vo	-9.89289
▁prends	-9.89305
▁cup	-9.89321
▁leve	-9.89335
ton	-9.89485
▁art	-9.89565
▁women	-9.89577
▁sang	-9.89577
▁revoir	-9.89594
▁demanda	-9.89633
▁fr	-9.89699
▁Oui	-9.89703
▁vi	-9.89706
▁ferai	-9.89759
▁Po	-9.89934
▁veulent	-9.89943
▁worked	-9.89965
▁repond	-9.8997
▁rose	-9.90113
▁completely	-9.90118
▁Europe	-9.90172
▁faute	-9.90224
▁drinking	-9.90297
▁riviere	-9.90312
▁funny	-9.90317
▁loved	-9.90419
▁savez	-9.90463
dom	-9.90578
▁pi	-9.90655
▁girls	-9.90673
mais	-9.90915
▁stopped	-9.91061
▁But	-9.91079
▁interessant	-9.91164
autour	-9.91176
▁Pourrai	-9.91288
▁Pense	-9.91332
▁souviens	-9.91334
intention	-9.91335
arreter	-9.91336
▁sp	-9.91365
▁flowers	-9.91371
▁pensez	-9.9142
▁treat	-9.91494
▁Noel	-9.91588
▁etrange	-9.91679
▁Sais	-9.91704
▁million	-9.91801
▁writing	-9.91802
yoto	-9.91803
▁Monday	-9.91833
▁mad	-9.9197
▁law	-9.92021
od	-9.92056
▁receive	-9.92178
▁learned	-9.92263
ront	-9.92448
▁succes	-9.92533
▁dimanche	-9.92555
▁join	-9.92559
▁reach	-9.92615
▁general	-9.92755
ache	-9.92828
led	-9.92833
▁closed	-9.92882
▁suite	-9.92979
▁eye	-9.93259
▁plane	-9.93291
▁husband	-9.93314
▁loves	-9.93315
▁roman	-9.93315
▁desolee	-9.93316
▁trente	-9.93316
▁fera	-9.93321
▁dictionary	-9.93332
▁garde	-9.93346
▁discuter	-9.93409
▁cache	-9.93629
▁Now	-9.9363
etranger	-9.93656
▁tort	-9.93662
▁Linda	-9.93696
▁quitte	-9.93736
▁Not	-9.93805
▁rec	-9.94002
▁stayed	-9.94064
▁Canada	-9.94079
▁disappoint	-9.94079
▁extreme	-9.94079
▁habit	-9.94097
▁souci	-9.94133
▁chante	-9.94133
▁everybody	-9.94164
▁price	-9.94326
▁mariage	-9.94489
▁weekend	-9.94526
▁Donne	-9.94602
▁needed	-9.94605
▁rendu	-9.94612
▁accuse	-9.94642
car	-9.94685
▁regard	-9.94743
▁ticket	-9.94818
▁mountain	-9.94861
▁ecole	-9.94907
cent	-9.95002
▁sign	-9.95004
▁crying	-9.95034
▁noise	-9.95052
▁gentil	-9.95108
▁em	-9.95127
cri	-9.95154
▁mistakes	-9.9519
▁anima	-9.9523
▁resultat	-9.9524
▁sport	-9.95334
▁fume	-9.95454
▁sol	-9.95477
▁broken	-9.9559
▁voulu	-9.95591
▁address	-9.95627
▁Chinese	-9.95658
▁courage	-9.9566
▁dangerous	-9.95661
▁jeunes	-9.95782
▁learning	-9.95798
ib	-9.95852
urs	-9.95861
isme	-9.95951
▁forme	-9.95954
▁trompe	-9.95971
▁tue	-9.96155
▁inter	-9.96207
▁Yes	-9.96248
par	-9.96296
▁lundi	-9.96411
▁fonctionne	-9.96496
▁cross	-9.96512
tant	-9.96557
▁line	-9.96774
▁honest	-9.96805
▁worth	-9.96813
land	-9.96853
▁Allez	-9.96982
▁considere	-9.97117
▁America	-9.97193
▁garder	-9.97194
▁hurry	-9.97198
▁corps	-9.97199
▁body	-9.97353
▁sentiment	-9.97448
▁animal	-9.97505
▁People	-9.97595
▁Here	-9.97843
▁Christmas	-9.97994
▁warm	-9.98082
▁parole	-9.98102
▁quiet	-9.9821
▁tel	-9.98388
▁egale	-9.98483
▁mer	-9.98623
▁smile	-9.98647
▁plante	-9.9865
▁haut	-9.98651
▁ressemble	-9.98712
▁blame	-9.98795
▁proche	-9.9883
▁cru	-9.98909
▁H	-9.98949
▁couple	-9.98983
▁taken	-9.98988
▁article	-9.99006
oyez	-9.99059
▁im	-9.99075
lic	-9.99112
▁fault	-9.99199
▁normal	-9.99312
▁gout	-9.99467
▁Va	-9.99503
pere	-9.99599
▁risque	-9.99605
▁joke	-9.99617
▁gre	-9.99622
▁retour	-9.99728
▁cinema	-10.0001
▁papier	-10.0001
▁cry	-10.0004
▁resoudr	-10.0004
▁cour	-10.001
▁arme	-10.0011
▁venue	-10.0011
ki	-10.0014
▁means	-10.0017
▁Savez	-10.0022
▁sucre	-10.0033
▁finir	-10.0041
▁trans	-10.0042
▁famous	-10.0042
▁fear	-10.0042
▁football	-10.0042
▁Dites	-10.0042
▁smart	-10.0042
▁color	-10.0045
▁pose	-10.0049
▁Regarde	-10.0055
▁mur	-10.0058
▁loi	-10.0061
▁whe	-10.007
▁triste	-10.0083
▁desor	-10.0089
▁jeu	-10.009
chi	-10.0103
▁Was	-10.0109
▁ignore	-10.0112
▁bread	-10.0124
▁montagne	-10.0124
▁salle	-10.0126
I	-10.0129
nite	-10.014
▁ge	-10.0144
▁camera	-10.0144
▁Ro	-10.0146
▁k	-10.0164
dessus	-10.0164
▁equipe	-10.0165
▁novel	-10.0165
rank	-10.0169
▁adore	-10.0171
▁notice	-10.0182
▁elles	-10.0187
ep	-10.0188
S	-10.02
▁bibliotheque	-10.0207
▁worried	-10.0207
▁foot	-10.0207
▁smell	-10.0207
▁necessary	-10.0216
▁problems	-10.0226
▁touche	-10.0235
ical	-10.0246
▁chinois	-10.0248
▁Toute	-10.025
rez	-10.0251
▁visage	-10.0252
ble	-10.0253
▁calme	-10.026
▁signe	-10.0268
▁mit	-10.0287
▁distance	-10.029
▁begin	-10.029
▁bat	-10.0294
▁kiss	-10.0303
▁poser	-10.0307
▁kids	-10.0313
▁repas	-10.0324
▁expect	-10.0325
▁umbrella	-10.0332
▁yen	-10.0337
▁scared	-10.0342
▁photos	-10.0364
▁utilise	-10.0368
▁com	-10.0373
irai	-10.0374
▁parapluie	-10.0374
▁Voudr	-10.0374
▁longue	-10.0388
▁bi	-10.0393
▁sad	-10.0401
veral	-10.0405
▁cro	-10.0406
▁animals	-10.0411
▁science	-10.0417
▁doubt	-10.0417
▁Prends	-10.0417
▁video	-10.0423
▁Am	-10.0429
▁tasse	-10.0432
ake	-10.0441
▁tente	-10.0445
▁sit	-10.0449
▁hundred	-10.0459
clock	-10.0461
▁amoureux	-10.0461
▁wind	-10.0475
▁glass	-10.0489
▁swimming	-10.0504
▁apple	-10.0534
▁Pas	-10.0543
▁arreter	-10.0545
▁helped	-10.055
▁ill	-10.0559
▁waste	-10.0561
▁revenu	-10.0566
▁plage	-10.0588
▁furent	-10.0591
▁ship	-10.0595
▁coat	-10.0607
ice	-10.0609
▁societe	-10.0631
▁talked	-10.0648
wa	-10.0653
ecrire	-10.0661
▁pommes	-10.0668
▁Aujourd	-10.0675
▁running	-10.0675
▁floor	-10.0677
▁bank	-10.0678
▁beach	-10.0683
▁Pensez	-10.0686
▁fer	-10.0687
▁Put	-10.0689
▁chair	-10.0695
ub	-10.0698
▁post	-10.07
▁contact	-10.0703
▁ate	-10.0707
▁gri	-10.0712
▁Thomas	-10.0719
▁sky	-10.0719
▁culture	-10.0719
▁avais	-10.0741
▁regret	-10.0744
▁handle	-10.0744
▁porter	-10.0755
▁sept	-10.0757
▁speech	-10.0762
▁success	-10.0764
▁taste	-10.0772
entendre	-10.0778
▁honnete	-10.0783
▁teach	-10.08
▁library	-10.0807
▁recherche	-10.0807
▁baseball	-10.0807
▁vingt	-10.0832
ayez	-10.0838
▁coin	-10.0847
▁patron	-10.0851
▁politique	-10.0851
▁borrow	-10.0852
▁protect	-10.0852
▁ouvert	-10.0861
ran	-10.0884
▁suit	-10.0905
▁courant	-10.0911
ture	-10.0918
▁soup	-10.0924
▁Thanks	-10.0937
▁habite	-10.0938
▁derange	-10.0939
examen	-10.0945
▁land	-10.095
▁lucky	-10.097
▁desk	-10.0973
▁rules	-10.0975
▁medicine	-10.0985
▁penses	-10.0989
▁thirty	-10.0992
ip	-10.0996
▁cra	-10.0999
ither	-10.0999
▁hors	-10.1004
▁taille	-10.1005
▁allowed	-10.1007
▁dormi	-10.1015
▁ho	-10.1027
▁boyfriend	-10.103
▁groupe	-10.1032
du	-10.1053
▁Te	-10.1055
▁exam	-10.1062
aille	-10.1062
▁Pourri	-10.1065
▁vote	-10.1068
▁ecoute	-10.1082
▁vend	-10.1082
▁Try	-10.1083
▁humain	-10.1119
▁abroad	-10.112
▁suffisam	-10.112
▁apologize	-10.1123
▁hasn	-10.1129
ors	-10.1147
eaucoup	-10.1164
▁bizarre	-10.1166
▁remarque	-10.1166
▁Any	-10.1167
▁commun	-10.1183
▁retire	-10.12
▁innocent	-10.1213
▁burn	-10.1213
▁ice	-10.1219
▁painting	-10.1228
ition	-10.1234
▁lunettes	-10.1258
▁With	-10.1258
▁moindre	-10.1259
▁remain	-10.1262
▁quitter	-10.1274
▁uncle	-10.1279
main	-10.1282
▁celebre	-10.1304
▁maladie	-10.1304
▁leaving	-10.1304
▁risk	-10.1305
▁banque	-10.1306
▁alive	-10.1306
O	-10.1313
▁set	-10.1314
▁given	-10.1319
▁ski	-10.1327
▁entrer	-10.1328
▁sell	-10.1343
▁gift	-10.1351
▁blue	-10.1351
▁twi	-10.1369
▁cri	-10.1372
▁earth	-10.1399
tter	-10.1408
▁Mi	-10.1411
▁Quelque	-10.1417
▁pire	-10.1442
▁prudent	-10.1447
▁dents	-10.1452
▁desire	-10.1455
ock	-10.1467
▁liste	-10.1468
▁signifie	-10.1479
▁suspect	-10.1492
▁serieuse	-10.1492
▁Even	-10.1495
▁rappele	-10.1499
▁sometimes	-10.1505
▁seconde	-10.1535
▁laugh	-10.1536
▁blood	-10.1539
ary	-10.1543
▁nu	-10.1546
▁seeing	-10.1553
ien	-10.1556
▁kid	-10.1562
▁hold	-10.1572
val	-10.1574
▁herself	-10.1587
▁warn	-10.1588
▁voice	-10.159
▁Mo	-10.1593
▁mille	-10.1597
▁promis	-10.1603
▁weight	-10.1605
▁sale	-10.1608
▁sentences	-10.1626
▁trou	-10.1629
▁luck	-10.1634
▁jolie	-10.1634
▁driving	-10.1635
▁connaitre	-10.1637
▁manteau	-10.1637
▁vecu	-10.1641
▁truc	-10.1641
▁base	-10.1645
▁Arretez	-10.1649
▁Ha	-10.166
ois	-10.1665
▁share	-10.1685
▁oncle	-10.1693
cal	-10.1699
▁ball	-10.1702
▁pull	-10.1704
▁sel	-10.1707
day	-10.171
▁expected	-10.1717
▁cor	-10.1725
▁belong	-10.1731
ose	-10.1731
▁fly	-10.1732
▁poids	-10.1741
▁forward	-10.1744
▁ride	-10.1747
▁sleeping	-10.1748
▁guitar	-10.1754
▁list	-10.1756
aise	-10.1758
eurs	-10.1764
▁bout	-10.1766
▁fair	-10.1768
▁camp	-10.1779
▁breath	-10.178
▁either	-10.1782
▁excuses	-10.1783
lin	-10.1786
▁ait	-10.1787
▁sommeil	-10.1797
▁solve	-10.1807
do	-10.1812
▁tuer	-10.1813
▁sub	-10.1826
▁college	-10.1829
▁Desole	-10.183
▁ligne	-10.1831
▁Jane	-10.1831
▁prin	-10.1832
▁glace	-10.1834
▁chats	-10.1845
▁gay	-10.1851
uc	-10.1858
▁reveille	-10.1859
▁tear	-10.1866
▁easily	-10.1877
▁vacation	-10.1877
▁seven	-10.1883
▁arm	-10.1886
▁sache	-10.1894
lui	-10.1898
▁importante	-10.1903
cy	-10.1906
▁nage	-10.1908
▁conseille	-10.1922
▁magazine	-10.1927
▁bain	-10.1927
avion	-10.1928
ouille	-10.1928
▁beat	-10.1928
▁Bill	-10.1931
▁wall	-10.1934
▁realize	-10.1937
▁chiens	-10.1952
▁gouvernement	-10.1963
▁Ho	-10.1963
▁bou	-10.1965
rap	-10.1966
▁mensonge	-10.1976
▁newspaper	-10.1976
▁Prenez	-10.1978
▁croit	-10.1981
▁fatiguee	-10.2005
▁temperature	-10.2026
▁jambe	-10.2026
▁exist	-10.2027
▁debut	-10.2039
attend	-10.2074
▁shopping	-10.2076
▁douleur	-10.2076
▁shop	-10.2077
▁honte	-10.2078
▁autorise	-10.2084
rk	-10.2088
nger	-10.2092
▁grave	-10.21
ath	-10.2108
lon	-10.211
E	-10.211
▁blague	-10.2126
interieur	-10.2127
▁wake	-10.2127
▁lever	-10.2131
▁habitue	-10.2136
▁rate	-10.215
mme	-10.2151
▁add	-10.2151
▁reparer	-10.216
▁played	-10.2161
▁impatient	-10.2177
▁passed	-10.2179
▁shut	-10.2179
▁dessus	-10.2182
oth	-10.2201
▁viendra	-10.2214
▁Mem	-10.2222
ellement	-10.2223
▁conversation	-10.2227
▁gauche	-10.2227
▁across	-10.2227
▁dogs	-10.2235
▁bath	-10.2242
▁depense	-10.2244
emb	-10.2244
apprendre	-10.2245
▁Peu	-10.2251
▁morte	-10.2255
▁shirt	-10.2256
▁choisi	-10.2258
▁menti	-10.2272
▁pizza	-10.2278
▁shot	-10.2279
▁proposition	-10.2279
▁form	-10.2281
▁reussir	-10.2281
▁cancer	-10.2281
▁winter	-10.2282
▁actual	-10.2285
▁intention	-10.2291
pped	-10.2293
▁parfaite	-10.2296
oublie	-10.2299
assi	-10.2313
ames	-10.2318
▁bird	-10.2326
▁excuse	-10.2333
▁marry	-10.2333
esprit	-10.2349
cteur	-10.235
▁carry	-10.235
ber	-10.2353
▁parlez	-10.2362
▁environ	-10.2369
▁listening	-10.2377
▁endormi	-10.2381
▁heavy	-10.2381
▁Life	-10.2381
▁satisfait	-10.2389
▁wi	-10.2394
▁tie	-10.2398
▁pieds	-10.2406
apres	-10.2409
▁discuss	-10.2428
▁w	-10.2432
▁super	-10.2432
▁States	-10.2433
▁history	-10.2433
▁viande	-10.2433
▁amusant	-10.2433
▁huit	-10.2442
▁amuse	-10.2442
▁lying	-10.2446
▁inside	-10.2471
▁leg	-10.2474
▁Australie	-10.2475
▁control	-10.2479
▁account	-10.2485
▁medicament	-10.2485
▁government	-10.2489
▁forte	-10.2495
ak	-10.2507
▁total	-10.2514
ating	-10.2521
▁anniversaire	-10.2533
▁nation	-10.2535
▁absolu	-10.2537
▁chemise	-10.2537
▁club	-10.2537
▁decouvert	-10.2538
▁pleure	-10.2539
▁ravi	-10.2543
ink	-10.2545
▁Donnez	-10.2551
▁ring	-10.2553
▁dirait	-10.2554
▁interesse	-10.2559
▁coucher	-10.2564
▁mode	-10.2572
▁fight	-10.2574
▁bother	-10.2578
▁possede	-10.259
▁shall	-10.259
▁chaise	-10.2596
men	-10.2621
ang	-10.2632
▁Sorry	-10.2643
▁etranger	-10.265
▁frappe	-10.2651
▁voyager	-10.2653
▁happens	-10.2653
▁nervous	-10.2655
▁glasses	-10.2663
essayer	-10.2668
▁echec	-10.2684
▁discours	-10.2696
▁presse	-10.2696
▁drole	-10.2696
▁pomme	-10.2706
▁dressed	-10.2711
ourir	-10.2712
appeler	-10.2718
▁depart	-10.2734
▁Ai	-10.2745
ious	-10.2747
▁Ceci	-10.2748
▁Esperanto	-10.275
▁bottle	-10.275
▁doigt	-10.2751
▁upset	-10.2751
▁flu	-10.276
▁state	-10.2762
▁attendu	-10.2763
uff	-10.2767
arbre	-10.2773
▁Mos	-10.2777
▁commande	-10.2794
▁utile	-10.2803
▁portai	-10.2812
▁rendez	-10.2815
▁Sois	-10.2816
▁rule	-10.2817
▁fortune	-10.2823
▁merite	-10.2823
▁king	-10.2835
attends	-10.2838
▁support	-10.2839
▁plans	-10.2847
▁avaient	-10.2848
▁bill	-10.2849
intenant	-10.285
▁wash	-10.2852
▁vain	-10.2854
▁Chine	-10.2856
▁conscience	-10.2857
▁excellent	-10.2858
▁boat	-10.2858
▁cousin	-10.286
▁moque	-10.286
▁Bob	-10.2868
▁happening	-10.2871
▁immediately	-10.2877
vent	-10.2878
▁bord	-10.2889
ote	-10.2892
▁credit	-10.2912
▁pratique	-10.2912
▁Terre	-10.2912
▁permission	-10.2913
▁cense	-10.2913
universite	-10.292
▁Certain	-10.2924
▁owe	-10.2925
▁file	-10.2925
▁somebody	-10.2933
▁Never	-10.2942
▁fa	-10.295
▁popular	-10.2966
▁lawyer	-10.2967
▁Viens	-10.2968
▁cou	-10.297
▁oblige	-10.2972
▁reconnaissant	-10.2977
▁roi	-10.2981
▁translate	-10.2985
▁player	-10.3011
▁profit	-10.3013
▁London	-10.3021
▁batiment	-10.3021
▁China	-10.3022
▁accepte	-10.3024
▁divorce	-10.304
vie	-10.3044
▁traite	-10.3057
▁sight	-10.3058
▁presenter	-10.3062
▁convaincu	-10.3077
▁suicide	-10.3077
▁pleut	-10.3077
▁Stay	-10.3077
▁connaissance	-10.3077
▁sourire	-10.308
▁differente	-10.3081
▁examen	-10.3083
▁worse	-10.3085
▁meal	-10.3086
▁serez	-10.31
ack	-10.3107
▁sentir	-10.3107
▁Plus	-10.3109
iques	-10.3118
▁population	-10.3132
▁echoue	-10.3132
▁silence	-10.3132
▁project	-10.3133
▁teeth	-10.3134
▁eight	-10.3136
iens	-10.3138
▁tableau	-10.3141
▁hang	-10.3146
aught	-10.3154
▁cute	-10.3157
▁faisons	-10.3173
mere	-10.3176
▁Londres	-10.3188
▁responsable	-10.3188
▁stylo	-10.3188
▁sweet	-10.3188
▁promesse	-10.3188
▁jealous	-10.3188
▁beginning	-10.3188
▁wood	-10.3188
▁feriez	-10.3191
▁juge	-10.3195
▁appareil	-10.3203
▁raining	-10.3214
▁donna	-10.3219
▁Allons	-10.3219
▁enseigne	-10.3229
▁lac	-10.3235
empecher	-10.3237
▁bouteille	-10.3244
▁jump	-10.3247
▁connu	-10.3257
▁vieil	-10.3265
▁talent	-10.3266
▁presente	-10.3277
▁parfait	-10.3282
▁efforts	-10.3288
▁subject	-10.3301
▁document	-10.3301
▁coupe	-10.3303
▁discussion	-10.3306
▁mien	-10.3317
▁vivant	-10.3325
▁step	-10.3334
▁fri	-10.3335
▁adresse	-10.335
▁manage	-10.3357
▁sugar	-10.3358
▁traffic	-10.3358
▁doivent	-10.3358
▁compose	-10.3359
▁descend	-10.3359
▁rock	-10.3359
▁tri	-10.3362
▁sex	-10.3363
▁Since	-10.337
▁avocat	-10.3371
▁shower	-10.3374
▁docteur	-10.3381
▁enseignant	-10.3384
▁fan	-10.3389
▁gun	-10.3391
▁aura	-10.3398
io	-10.34
ui	-10.3409
▁suivr	-10.3409
▁larme	-10.3411
▁tombee	-10.3413
▁object	-10.3413
▁persuade	-10.3415
▁attack	-10.3415
▁nettoye	-10.3416
hose	-10.3417
▁vivent	-10.3422
ern	-10.3431
▁fermer	-10.3436
▁supporter	-10.345
abord	-10.3454
▁danser	-10.3456
▁Mari	-10.3469
▁sold	-10.3469
esperanto	-10.3472
▁fool	-10.3473
▁throw	-10.3473
▁somewhere	-10.3474
▁marier	-10.3475
▁meat	-10.3475
▁Per	-10.3488
▁choose	-10.349
entends	-10.3492
way	-10.3506
▁Co	-10.3523
▁impress	-10.3525
▁actuelle	-10.353
▁bouche	-10.3532
▁asking	-10.3533
▁sitting	-10.3538
▁apporte	-10.354
▁rid	-10.3542
▁appeler	-10.3571
▁finale	-10.3571
▁condition	-10.3577
▁Wa	-10.3583
▁vide	-10.3585
▁zoo	-10.3587
hu	-10.3589
▁scene	-10.3589
▁moitie	-10.3589
▁deserve	-10.3589
▁Quoi	-10.3591
▁arrivee	-10.3595
ime	-10.3601
▁single	-10.361
▁employe	-10.3615
▁months	-10.3616
▁bear	-10.3624
▁national	-10.3634
bri	-10.3639
▁sauve	-10.3643
rew	-10.3644
▁holiday	-10.3647
▁natural	-10.3647
▁mouth	-10.3648
▁Good	-10.3648
▁faible	-10.3648
▁comprend	-10.3649
ira	-10.3657
idee	-10.3658
▁direction	-10.3661
▁centre	-10.3667
▁epouse	-10.3671
▁though	-10.3679
▁puni	-10.3702
▁sandwich	-10.3705
▁forgive	-10.3705
▁salaire	-10.3705
▁loud	-10.3707
▁tourne	-10.3715
bor	-10.3717
▁Were	-10.3725
aimai	-10.3731
▁instant	-10.3733
▁succeed	-10.3735
instant	-10.3741
▁capital	-10.3757
▁storm	-10.3765
▁allow	-10.3767
cho	-10.3783
▁guitare	-10.3795
ttes	-10.3797
▁complain	-10.3801
▁Ga	-10.3807
▁singing	-10.3811
▁contente	-10.3812
▁allemand	-10.3824
▁murder	-10.3824
nique	-10.3825
▁lave	-10.3838
▁system	-10.3848
▁pot	-10.3867
▁rem	-10.387
▁keys	-10.3876
▁occasion	-10.3883
▁appear	-10.3883
▁thousand	-10.3884
▁slept	-10.3884
▁common	-10.3884
▁rent	-10.3891
▁moon	-10.3896
▁plat	-10.3904
▁dure	-10.3908
iers	-10.393
▁haute	-10.3931
▁Has	-10.3932
▁result	-10.3933
fu	-10.3943
▁tranquille	-10.3944
▁conduis	-10.3944
▁morceau	-10.3944
ron	-10.395
▁sauf	-10.395
▁nerve	-10.3953
durant	-10.3956
▁guys	-10.3958
▁compter	-10.3965
ism	-10.3967
▁laughing	-10.3969
envers	-10.3973
dejeuner	-10.3982
hotel	-10.3982
aurai	-10.3983
▁tache	-10.3999
▁countries	-10.4005
▁Show	-10.4006
▁brule	-10.4007
▁cool	-10.4009
▁soiree	-10.401
▁passion	-10.4011
▁nor	-10.4017
attendre	-10.4019
▁membre	-10.4029
rie	-10.4029
▁mise	-10.4039
▁Jim	-10.4041
▁hell	-10.4046
the	-10.4051
▁disent	-10.4059
alcool	-10.4066
▁slow	-10.4066
▁weird	-10.4066
row	-10.407
▁couru	-10.4075
lor	-10.4081
▁souvenir	-10.4085
▁view	-10.4092
ball	-10.4093
▁hero	-10.4094
▁Bu	-10.4097
▁systeme	-10.4103
▁ouverte	-10.4109
▁top	-10.4111
▁aurais	-10.4115
▁prepared	-10.4127
aeroport	-10.4127
▁satisfied	-10.4137
▁parlai	-10.4145
▁precise	-10.4147
▁trees	-10.4162
illes	-10.4176
▁bal	-10.4188
▁traduir	-10.4189
▁tempete	-10.4189
▁progress	-10.4192
▁W	-10.42
▁mienne	-10.4211
▁devin	-10.4215
▁avance	-10.4226
▁port	-10.4228
▁avion	-10.4228
▁boys	-10.4229
▁held	-10.4237
▁Ra	-10.4244
▁permis	-10.425
semblait	-10.4251
▁Alors	-10.4252
▁peuple	-10.4255
▁Make	-10.4261
▁favor	-10.4262
▁pique	-10.4264
▁mariee	-10.4267
▁cree	-10.4274
▁raise	-10.4277
▁seras	-10.4279
▁soupe	-10.4291
▁balle	-10.4305
irent	-10.4309
▁meaning	-10.4311
▁waited	-10.4311
▁dirty	-10.4314
▁peace	-10.4314
▁Something	-10.4318
uel	-10.4319
▁neuf	-10.4324
▁lake	-10.4324
▁visited	-10.4326
▁interest	-10.4329
▁surviv	-10.4336
▁plann	-10.4355
affaire	-10.4356
▁walking	-10.4357
▁allait	-10.4372
▁couteau	-10.4374
vais	-10.4375
▁church	-10.4376
▁kitchen	-10.4376
▁policier	-10.4376
▁reserve	-10.4376
▁golf	-10.4377
▁cigarette	-10.4377
▁billet	-10.4377
▁copine	-10.4378
for	-10.4402
arriver	-10.4407
Amerique	-10.4419
impression	-10.4419
▁cla	-10.442
▁comporte	-10.442
enfant	-10.4426
▁clo	-10.4432
▁patience	-10.444
▁example	-10.444
▁douche	-10.4444
▁moved	-10.4446
▁extra	-10.4448
▁ira	-10.4449
▁engage	-10.4453
▁enem	-10.4457
▁grands	-10.4459
▁entiere	-10.447
▁clair	-10.4473
▁choisir	-10.448
▁commenca	-10.4495
hier	-10.4501
▁compagnie	-10.4503
▁chaleur	-10.4504
▁eggs	-10.4506
▁rev	-10.4507
ative	-10.4517
▁chef	-10.4518
▁green	-10.4521
▁calm	-10.4552
▁attrape	-10.4557
▁studied	-10.4567
▁cats	-10.4568
▁musee	-10.4568
▁stone	-10.4572
▁frais	-10.4582
▁pet	-10.4584
▁fil	-10.4585
▁movies	-10.4588
▁Sh	-10.4592
▁cruel	-10.4601
▁cooking	-10.4606
▁Reste	-10.4611
iere	-10.4614
ntement	-10.4618
▁rhume	-10.4632
▁correcte	-10.4633
▁woke	-10.4633
erie	-10.4633
▁soul	-10.4641
▁mail	-10.4664
▁difficulte	-10.4664
side	-10.4675
tta	-10.4687
▁visiter	-10.4693
▁ouvrir	-10.4696
▁relation	-10.4697
eglise	-10.4697
▁bonheur	-10.4697
▁traduction	-10.4697
▁blind	-10.4697
▁wonderful	-10.47
▁conge	-10.4715
obe	-10.4721
▁regarda	-10.4723
▁effort	-10.4724
▁laughed	-10.4738
▁admit	-10.4745
▁museum	-10.4762
▁airport	-10.4763
▁theorie	-10.4764
▁among	-10.4766
▁deep	-10.4777
▁vire	-10.4778
nder	-10.4778
▁continuer	-10.4786
▁savons	-10.4792
▁chocolat	-10.4794
▁etoile	-10.4794
▁driver	-10.4808
▁site	-10.4809
▁kissed	-10.4809
▁bigge	-10.482
attendais	-10.4883
▁peint	-10.4894
▁Should	-10.4894
▁afford	-10.4894
▁themselves	-10.4894
▁valise	-10.4894
▁built	-10.4895
▁conduit	-10.4898
▁math	-10.49
▁Tes	-10.4903
gh	-10.4904
▁slowly	-10.4905
lot	-10.4914
▁crie	-10.493
▁personal	-10.4935
▁plai	-10.4936
isation	-10.4939
pres	-10.494
▁determine	-10.4961
▁reconnu	-10.4961
▁scientifique	-10.4961
▁pierre	-10.4961
▁finger	-10.4961
▁Sans	-10.4967
▁push	-10.4968
▁religion	-10.4971
▁realise	-10.4975
▁social	-10.4991
▁lend	-10.5017
▁harder	-10.5018
▁bleu	-10.5023
▁twenty	-10.5028
▁Smith	-10.5028
▁knife	-10.5028
▁preuve	-10.5028
▁Turn	-10.5032
▁preter	-10.5069
▁etrangere	-10.5072
▁Fro	-10.5085
▁Parle	-10.5086
▁group	-10.5092
eterre	-10.5093
▁introduce	-10.5096
▁rempli	-10.5096
▁record	-10.5096
▁earlier	-10.5096
▁source	-10.5096
▁ahead	-10.5108
elon	-10.5108
▁exemple	-10.5114
▁lack	-10.5119
ffe	-10.5135
▁brise	-10.5135
▁pont	-10.514
interesse	-10.5148
hildren	-10.5155
▁Spanish	-10.5164
▁welcome	-10.5164
▁amoureuse	-10.5165
rieux	-10.5168
▁Call	-10.5175
▁Internet	-10.5176
▁importe	-10.5192
▁chocolate	-10.5199
▁retourner	-10.52
▁dise	-10.5203
▁ennemi	-10.5213
▁wor	-10.5232
▁parviens	-10.5232
▁chess	-10.5233
▁portable	-10.5235
▁embrasse	-10.5235
▁collection	-10.5237
▁lead	-10.524
▁consist	-10.524
ities	-10.5244
▁imagination	-10.525
ple	-10.5253
oo	-10.5255
ecoute	-10.526
▁carefully	-10.5265
▁dort	-10.5269
▁faster	-10.5282
▁hasard	-10.5284
esterday	-10.5293
▁singer	-10.5299
▁grandfather	-10.5301
▁involved	-10.5301
▁avoid	-10.5301
▁trahi	-10.5301
place	-10.5304
▁intend	-10.5304
▁merci	-10.5307
▁realite	-10.5309
▁plays	-10.5313
▁weak	-10.5318
▁changement	-10.532
▁parait	-10.532
nna	-10.534
▁oui	-10.5344
▁pleine	-10.5348
▁cesse	-10.5349
▁Gu	-10.5351
▁willing	-10.5357
▁Vi	-10.5361
stood	-10.537
▁pleasure	-10.5371
▁straight	-10.5371
▁poche	-10.5378
▁laver	-10.5379
jo	-10.5381
cul	-10.5386
▁Aime	-10.5388
▁bons	-10.5411
▁retourne	-10.5416
▁resist	-10.5431
▁suivi	-10.5434
▁represent	-10.5441
▁chicken	-10.5441
▁disparu	-10.5441
▁wedding	-10.5441
▁relax	-10.5441
▁client	-10.5441
▁quelconque	-10.5443
▁hide	-10.5444
▁impressionne	-10.5447
▁iron	-10.5448
▁wise	-10.545
▁pair	-10.5461
ize	-10.5479
▁agreed	-10.5485
▁staying	-10.5505
▁cles	-10.5509
▁empty	-10.5511
▁horrible	-10.5511
▁heat	-10.5513
▁accord	-10.5517
▁Sur	-10.5518
ami	-10.552
▁Wait	-10.5522
▁feed	-10.5523
▁gold	-10.5524
▁stolen	-10.5532
▁parlent	-10.5538
▁voleur	-10.5542
▁feet	-10.5545
▁By	-10.555
▁voler	-10.5559
▁harm	-10.5559
▁joueur	-10.5561
▁carrie	-10.5567
▁soucie	-10.5574
▁ideas	-10.5578
▁ga	-10.5578
▁limite	-10.5581
▁injured	-10.5582
▁memory	-10.5582
▁Mike	-10.5583
▁crains	-10.5583
▁fuck	-10.5584
▁essaya	-10.5585
▁salt	-10.5588
▁pousse	-10.5596
▁vienne	-10.5609
▁rejouis	-10.562
▁Pro	-10.5628
▁droite	-10.5651
▁americain	-10.5653
▁purpose	-10.5653
▁position	-10.5653
▁valeur	-10.5656
▁cloud	-10.5664
ko	-10.567
▁Br	-10.5682
▁reflechir	-10.5692
▁education	-10.5698
▁pictures	-10.5699
▁sortie	-10.57
▁verifier	-10.5713
▁serve	-10.5717
ouvre	-10.5724
aurait	-10.5726
▁paie	-10.5729
▁space	-10.5733
cro	-10.5733
▁arriva	-10.5735
edans	-10.5738
andis	-10.5745
▁amour	-10.5749
ifie	-10.5749
▁card	-10.5751
issent	-10.5751
▁entend	-10.5759
▁allume	-10.5766
▁avions	-10.5785
▁guilty	-10.5798
▁translation	-10.5798
▁cheap	-10.5798
▁debout	-10.5798
▁souri	-10.581
▁collect	-10.5811
ship	-10.582
▁battre	-10.582
ray	-10.5837
iser	-10.584
ju	-10.5843
▁fo	-10.5854
ries	-10.5863
▁vendre	-10.5867
▁miracle	-10.5871
▁tongue	-10.5871
▁liar	-10.5872
▁critique	-10.5872
▁appel	-10.5898
oday	-10.5901
ator	-10.5904
▁Rie	-10.5905
avis	-10.5912
▁peche	-10.5918
▁rang	-10.5918
▁Algeria	-10.5922
ized	-10.5926
▁unique	-10.5936
▁veritable	-10.5944
▁suggere	-10.5944
▁lecture	-10.5944
▁ought	-10.5944
bsolutely	-10.5945
▁chacun	-10.5945
▁bike	-10.5945
▁using	-10.5949
▁monte	-10.5953
▁preferee	-10.5959
▁defend	-10.5961
ienne	-10.5965
▁revenir	-10.5966
▁Of	-10.5968
▁vraie	-10.5975
▁continu	-10.5978
▁debat	-10.5988
etudier	-10.599
▁jou	-10.5991
▁paint	-10.5993
▁pens	-10.5996
▁stole	-10.5997
▁passee	-10.601
▁incroyable	-10.6018
▁minimum	-10.6018
▁fresh	-10.6018
▁double	-10.6018
▁spring	-10.6019
energie	-10.6019
▁fired	-10.602
▁Rome	-10.6022
▁feelings	-10.6024
▁decider	-10.6024
▁entreprise	-10.6026
port	-10.6027
▁couche	-10.6029
▁lors	-10.6037
▁understood	-10.6037
▁apples	-10.6038
▁pale	-10.6041
▁vache	-10.605
▁savent	-10.605
▁combat	-10.6055
▁voit	-10.607
▁fishing	-10.6073
vol	-10.6075
▁gener	-10.6076
anni	-10.6079
suite	-10.6085
▁effraye	-10.6093
▁Venez	-10.6093
▁Germany	-10.6097
ometimes	-10.6111
rop	-10.6127
▁direct	-10.6127
▁blessee	-10.6134
▁map	-10.6134
▁mentir	-10.6135
▁raconte	-10.6137
▁eut	-10.6139
▁native	-10.6141
▁remercier	-10.6165
▁populaire	-10.6168
▁expert	-10.6168
▁stuff	-10.6169
▁urgent	-10.6171
▁sw	-10.6172
▁nouveaux	-10.6189
▁auto	-10.619
yant	-10.6196
▁duty	-10.6196
▁seront	-10.62
▁image	-10.6204
▁Vos	-10.6211
▁lock	-10.6216
▁taller	-10.6233
entreprise	-10.6236
▁Du	-10.6241
▁England	-10.6244
▁obvious	-10.6244
▁connaisse	-10.6244
▁prevu	-10.6244
hiver	-10.6244
▁rude	-10.6244
▁ufs	-10.6247
▁memoire	-10.6247
▁See	-10.625
▁chaude	-10.6256
▁coupable	-10.6257
har	-10.6261
▁pan	-10.6261
▁copie	-10.6262
▁Regardez	-10.6263
▁ennuye	-10.6268
▁shy	-10.6276
▁note	-10.6276
▁preparer	-10.6282
▁recognize	-10.6284
▁mention	-10.6287
▁foret	-10.629
uck	-10.6303
▁manquer	-10.6304
▁laissez	-10.6305
▁confi	-10.6308
ega	-10.6309
▁soccer	-10.632
exterieur	-10.632
▁dirige	-10.632
▁declare	-10.632
uf	-10.632
▁devraient	-10.6321
▁aware	-10.6321
arme	-10.6328
nait	-10.6331
essaie	-10.6336
cur	-10.6344
▁suggest	-10.6355
king	-10.6357
ged	-10.636
▁entier	-10.6363
pin	-10.6367
▁veuille	-10.6387
▁oreille	-10.6388
▁destin	-10.6389
experience	-10.639
stairs	-10.6391
▁suitcase	-10.6397
▁stick	-10.6398
entreteni	-10.64
▁oiseaux	-10.64
▁nuage	-10.6401
aine	-10.6408
▁cuisiner	-10.6408
▁Restez	-10.6409
▁toward	-10.6411
▁role	-10.6411
▁master	-10.6418
▁Algerian	-10.642
▁perte	-10.6421
onna	-10.6431
▁poli	-10.6432
▁stars	-10.6434
▁aille	-10.6437
▁prove	-10.6445
▁flat	-10.6472
exercice	-10.6475
▁Earth	-10.6475
▁bridge	-10.6475
▁drogue	-10.6475
▁habituellement	-10.6475
▁obtenu	-10.6475
▁soldat	-10.6475
▁Read	-10.6475
▁Leave	-10.6477
▁shit	-10.6481
▁Russian	-10.6485
giving	-10.6487
▁Bring	-10.6496
▁Bon	-10.6497
▁oiseau	-10.6505
▁ferait	-10.6508
▁flo	-10.6508
▁admire	-10.6509
▁timide	-10.6511
line	-10.6511
▁claire	-10.6519
▁aim	-10.652
▁remind	-10.6526
▁sonne	-10.6529
▁dreams	-10.654
▁Suis	-10.6548
▁above	-10.6554
▁guide	-10.6556
▁programme	-10.6559
▁mom	-10.656
▁product	-10.656
▁prise	-10.6569
▁liberte	-10.6573
▁profonde	-10.6575
action	-10.6578
▁Ver	-10.6579
▁washing	-10.6581
▁riz	-10.6583
▁aviez	-10.6588
▁voie	-10.6603
▁Ah	-10.6603
▁text	-10.6604
▁conte	-10.6613
▁apartment	-10.6633
▁pensait	-10.6637
▁dishes	-10.664
▁arrested	-10.6641
▁followed	-10.6648
expliquer	-10.6658
▁abandonne	-10.6659
▁orange	-10.6659
▁feuille	-10.666
ality	-10.6662
▁tient	-10.6669
▁tend	-10.6674
▁rat	-10.6675
▁drop	-10.6686
▁traverser	-10.669
▁japonaise	-10.6695
▁brave	-10.6699
▁Fi	-10.6703
information	-10.6707
▁university	-10.6711
▁russe	-10.6711
▁pencil	-10.6711
▁gas	-10.6712
▁drug	-10.6714
▁separe	-10.6717
▁polite	-10.6726
▁nose	-10.6737
▁vert	-10.6746
▁etat	-10.6772
▁prudente	-10.679
▁ashamed	-10.6791
▁consequence	-10.6791
▁local	-10.6791
▁agreable	-10.6791
▁crayon	-10.6791
▁maitre	-10.6792
▁terme	-10.6794
▁rever	-10.6795
▁theory	-10.6797
▁Eh	-10.6802
▁ancien	-10.6805
pite	-10.6805
▁convinced	-10.6814
light	-10.6816
▁painted	-10.6825
vons	-10.6829
▁island	-10.6832
▁boit	-10.6846
ttent	-10.6853
▁fallu	-10.6861
▁partage	-10.6868
ually	-10.6869
▁promenade	-10.6872
▁require	-10.6872
▁poison	-10.6873
▁generale	-10.6873
▁anywhere	-10.6874
▁sh	-10.6878
▁Osa	-10.6882
▁soldier	-10.6882
▁race	-10.6885
▁Celui	-10.689
▁flower	-10.6891
▁impression	-10.6899
▁avis	-10.6936
▁lion	-10.6942
▁responsabilite	-10.6953
▁cheese	-10.6953
▁faveur	-10.6953
▁field	-10.6953
▁boring	-10.6953
▁sooner	-10.6958
▁lazy	-10.6962
▁likely	-10.6964
▁implique	-10.6966
▁within	-10.697
▁inconvenient	-10.6972
▁emprunter	-10.6977
oi	-10.6989
▁beaute	-10.6991
fore	-10.7005
occuper	-10.7016
▁leaves	-10.703
work	-10.703
▁ecouter	-10.7033
ank	-10.7034
▁campagne	-10.7035
▁contain	-10.7035
▁ground	-10.7035
▁judge	-10.7035
▁corde	-10.7039
▁prefererais	-10.7039
▁examine	-10.7043
▁reg	-10.7043
exprime	-10.7049
▁decu	-10.7051
▁ordered	-10.7053
▁seriously	-10.706
▁parles	-10.707
▁lune	-10.7073
▁goal	-10.7085
enseign	-10.7101
M	-10.7116
B	-10.7117
▁informe	-10.7117
▁dommage	-10.7117
▁pocket	-10.7117
▁private	-10.7117
▁illegal	-10.7117
▁devait	-10.7118
▁happiness	-10.7118
▁wa	-10.7119
▁improve	-10.7121
▁worst	-10.7122
▁pause	-10.7122
orrow	-10.7125
▁region	-10.7128
inter	-10.7129
▁hiding	-10.7135
▁style	-10.714
ude	-10.7141
▁arms	-10.715
▁gro	-10.7151
▁prom	-10.7154
rier	-10.7155
▁appelle	-10.7162
▁fla	-10.7163
▁dispos	-10.7178
▁viv	-10.7182
▁rencontres	-10.7191
imagine	-10.7201
▁energy	-10.7201
▁magnifique	-10.7201
▁mathematique	-10.7201
▁itself	-10.7201
▁equal	-10.7201
▁folle	-10.7201
▁lycee	-10.7202
▁insist	-10.7209
▁Aimez	-10.7213
▁fourni	-10.7222
habite	-10.7223
▁ear	-10.7226
▁artist	-10.7232
▁Jack	-10.7252
▁low	-10.7255
▁mo	-10.7262
▁standing	-10.7265
com	-10.7268
▁Excuse	-10.7275
▁regrette	-10.728
▁attraper	-10.7283
▁fromage	-10.7283
▁lesson	-10.7284
▁advantage	-10.7285
▁conference	-10.7285
▁explication	-10.7285
ordinaire	-10.7285
▁argument	-10.7285
▁demenage	-10.7285
allemand	-10.7285
▁violence	-10.7285
▁Grand	-10.7285
▁Hello	-10.7286
▁bomb	-10.7286
▁peinture	-10.7286
▁prevent	-10.7286
▁fiche	-10.7287
▁flight	-10.7287
board	-10.7289
ignorais	-10.729
▁useful	-10.7293
▁inquiet	-10.7294
▁action	-10.7297
▁justice	-10.7297
▁Mets	-10.73
▁proposal	-10.7302
▁appartement	-10.7305
▁vase	-10.7311
mission	-10.7315
▁proteger	-10.7322
▁Th	-10.7325
▁devient	-10.7327
lace	-10.733
▁escape	-10.7333
allais	-10.7335
▁seriez	-10.7336
▁lies	-10.7338
▁Hol	-10.7343
▁cop	-10.7348
▁weeks	-10.7357
▁chere	-10.7357
▁trait	-10.7361
▁vendu	-10.7362
▁interessante	-10.7362
▁ordre	-10.7363
▁concern	-10.7366
▁depourvu	-10.737
▁particular	-10.737
▁retraite	-10.737
▁exercise	-10.737
▁legume	-10.737
equipe	-10.7371
C	-10.7371
▁silent	-10.7371
▁boisson	-10.7378
▁universe	-10.7384
sence	-10.7388
▁Com	-10.7389
▁earn	-10.7394
▁industr	-10.7395
▁shoulder	-10.7414
▁ennui	-10.7418
▁election	-10.7421
▁poem	-10.744
▁nouvel	-10.745
▁anti	-10.745
avenir	-10.7452
▁explanation	-10.7455
▁middle	-10.7455
▁resolu	-10.7455
▁Two	-10.7455
▁salary	-10.7455
▁confirm	-10.7455
▁market	-10.7456
occasion	-10.7457
▁clever	-10.7458
▁recently	-10.7464
▁bouton	-10.7464
appro	-10.7465
▁naive	-10.7465
▁exception	-10.7466
▁missing	-10.7473
▁lady	-10.749
▁esper	-10.7492
▁poet	-10.7497
▁nourri	-10.75
▁express	-10.7516
▁espoir	-10.7523
▁fur	-10.7524
▁aimes	-10.753
▁except	-10.7531
▁stranger	-10.7534
▁gotten	-10.7535
embrasser	-10.7537
▁brush	-10.7541
▁Canadian	-10.7541
▁international	-10.7541
▁invitation	-10.7541
▁instead	-10.7541
▁tomba	-10.7548
▁moral	-10.7549
▁contrarie	-10.7549
D	-10.755
▁niveau	-10.7552
▁suddenly	-10.7555
▁search	-10.7556
ked	-10.7557
▁courte	-10.7558
▁situe	-10.7565
etudie	-10.7566
ison	-10.757
▁grass	-10.7575
ouvrir	-10.7576
▁Well	-10.7578
▁courses	-10.7581
▁speaker	-10.7584
▁sincere	-10.7588
▁manager	-10.7589
▁desir	-10.7595
▁Ju	-10.7603
aura	-10.7614
▁candidat	-10.7628
▁construit	-10.7628
▁cravate	-10.7628
▁practice	-10.7628
▁augmente	-10.7628
▁steal	-10.7628
▁gratuit	-10.7629
▁camion	-10.7629
▁presence	-10.7629
▁wallet	-10.7629
▁blanche	-10.763
▁Ann	-10.7645
▁particulier	-10.7648
imes	-10.7648
▁controle	-10.7652
▁huge	-10.7663
▁nine	-10.7682
▁grandi	-10.7684
▁esprit	-10.7684
▁fis	-10.7684
inquiete	-10.7692
▁dropp	-10.7704
▁Ecoute	-10.7716
▁Monsieur	-10.7716
▁garage	-10.7716
▁disease	-10.7716
▁awake	-10.7716
▁enorme	-10.7716
▁Tony	-10.772
▁prof	-10.7721
▁douce	-10.7722
bus	-10.7723
▁paresse	-10.7731
▁sympa	-10.7735
▁button	-10.774
▁viendrai	-10.774
coming	-10.774
▁comportement	-10.7743
▁obteni	-10.7748
▁War	-10.7769
ombre	-10.778
▁jalou	-10.7789
her	-10.7795
▁accepter	-10.7799
▁worker	-10.7802
▁Brazil	-10.7804
▁alcohol	-10.7804
▁lonely	-10.7805
▁Paul	-10.7805
▁joy	-10.7805
▁irre	-10.7808
▁fache	-10.7816
▁elephant	-10.7817
▁contribut	-10.7818
▁milieu	-10.782
▁capitale	-10.7823
▁dispute	-10.783
▁pie	-10.784
▁pecher	-10.7842
▁sert	-10.7849
▁reelle	-10.7883
▁hid	-10.7885
▁mignon	-10.7888
▁algerien	-10.7894
▁conscient	-10.7894
▁complique	-10.7894
▁plent	-10.7894
▁annule	-10.7894
▁bright	-10.7896
▁email	-10.7896
▁healthy	-10.7899
▁dirai	-10.7907
▁results	-10.791
▁tienne	-10.7911
▁till	-10.7924
enfui	-10.7929
▁Vas	-10.7929
▁reflechi	-10.7935
▁fiere	-10.7943
▁rice	-10.7943
▁propose	-10.7944
▁Isn	-10.7949
oubliez	-10.7956
▁ears	-10.7961
amis	-10.7964
▁suffer	-10.7964
univers	-10.7966
▁sage	-10.7966
▁devenue	-10.7968
▁examination	-10.7984
▁costume	-10.7984
▁Essaie	-10.7984
▁Voila	-10.7984
▁exige	-10.7984
▁Jackson	-10.7984
▁betray	-10.7984
mar	-10.7988
▁assure	-10.799
▁remis	-10.799
P	-10.799
▁birds	-10.7991
▁strict	-10.7991
▁cover	-10.7997
▁pal	-10.8022
appel	-10.8043
▁dare	-10.8043
tuck	-10.8056
▁jouai	-10.8058
▁meant	-10.806
▁advance	-10.8075
▁knock	-10.8075
▁recemment	-10.8075
▁rumeur	-10.8075
▁copain	-10.8075
▁medical	-10.8075
▁blow	-10.8076
anniversaire	-10.8082
haps	-10.8082
▁Time	-10.8097
tting	-10.81
▁Moi	-10.8109
▁raconter	-10.8113
▁fle	-10.8114
ecouter	-10.8116
▁serie	-10.8124
▁dame	-10.8128
▁parvenu	-10.8137
▁Garde	-10.8157
▁voitures	-10.8159
▁rencontree	-10.8159
▁appar	-10.8159
▁Deux	-10.8161
▁clock	-10.8165
▁rends	-10.8165
▁couvert	-10.8166
▁traverse	-10.8166
▁destroy	-10.8167
▁nulle	-10.8167
▁transport	-10.8167
▁interdit	-10.8167
espace	-10.8168
▁interrupt	-10.817
▁lift	-10.8171
▁couper	-10.8172
▁vitesse	-10.8175
arde	-10.818
▁poeme	-10.8184
▁cream	-10.8184
▁attaque	-10.8185
▁sleepy	-10.8189
rions	-10.8191
▁essaie	-10.8213
▁chant	-10.8217
▁planete	-10.822
▁mou	-10.8234
▁acting	-10.8235
▁decor	-10.8244
▁Ask	-10.8253
▁Accord	-10.8259
▁possibilite	-10.8259
incendie	-10.8259
▁shoot	-10.8259
ability	-10.8259
▁absence	-10.8259
▁menace	-10.826
▁beauty	-10.8261
▁marre	-10.8261
cle	-10.8261
▁attitude	-10.8269
▁vouliez	-10.8269
▁fallait	-10.8274
▁issue	-10.8275
▁gentille	-10.828
▁permettre	-10.828
▁trouva	-10.8282
▁paire	-10.8285
ama	-10.829
ordre	-10.8291
onner	-10.8309
▁Whatever	-10.8311
▁expliquer	-10.8313
over	-10.8317
▁arrives	-10.8322
▁belles	-10.8329
iche	-10.8343
▁preci	-10.8343
▁grandmother	-10.8352
▁opportunity	-10.8352
▁schedule	-10.8352
▁siecle	-10.8353
▁gerer	-10.8353
▁mood	-10.8353
▁chouette	-10.8353
▁web	-10.8354
ivre	-10.8355
▁Hu	-10.8356
▁fermee	-10.8357
▁Jai	-10.8365
▁terminer	-10.8367
▁calling	-10.8369
▁Last	-10.8374
▁sentai	-10.8374
▁cir	-10.8378
▁fac	-10.8381
▁path	-10.8381
▁prive	-10.8384
▁locked	-10.839
▁habitude	-10.839
▁Connais	-10.8393
▁organ	-10.8399
▁foule	-10.8399
▁bare	-10.8401
auteur	-10.8403
onnaissez	-10.8412
▁planet	-10.8413
apprends	-10.8415
▁serons	-10.8415
▁neighbor	-10.8418
▁spell	-10.8422
▁Friday	-10.8447
▁attempt	-10.8447
▁contract	-10.8447
▁correspond	-10.8447
▁earthquake	-10.8447
▁recommande	-10.8447
▁craint	-10.8447
asso	-10.845
▁bored	-10.845
▁Italy	-10.8451
▁sauver	-10.8453
N	-10.8458
gotten	-10.8462
▁pin	-10.8474
gged	-10.848
ped	-10.8485
▁truck	-10.8489
▁cow	-10.8494
epouser	-10.8503
▁apprend	-10.8505
vier	-10.8515
▁identi	-10.8524
aud	-10.8531
▁auriez	-10.8532
▁mistaken	-10.8533
▁fonction	-10.8535
▁program	-10.8535
▁marriage	-10.8542
▁ourselves	-10.8542
▁fed	-10.8542
▁familiar	-10.8542
▁Hurry	-10.8542
▁trick	-10.8543
▁passport	-10.8545
▁naturelle	-10.8551
cule	-10.8554
oreille	-10.8562
▁jeter	-10.8564
▁bra	-10.8566
▁tight	-10.8568
▁insult	-10.857
▁souhait	-10.8574
oyer	-10.8584
alite	-10.8595
▁lent	-10.8608
▁letters	-10.8616
▁whi	-10.8632
abyle	-10.8638
▁President	-10.8638
▁Saturday	-10.8638
▁coincidence	-10.8638
▁criminal	-10.8638
▁character	-10.8638
▁marrant	-10.8638
▁Bonjour	-10.8638
▁joindre	-10.8639
▁theatre	-10.8639
▁failure	-10.8641
▁passeport	-10.8642
▁brothers	-10.8646
▁recent	-10.8649
▁policeman	-10.8649
▁gaz	-10.8652
▁forever	-10.866
anche	-10.8663
ima	-10.8667
▁size	-10.8672
excuser	-10.8672
▁version	-10.8678
▁ameliore	-10.8683
▁metro	-10.8688
▁coura	-10.8692
ched	-10.8699
economie	-10.8706
▁quant	-10.8713
▁mets	-10.8717
▁semblez	-10.8724
▁amene	-10.8729
▁appointment	-10.8735
▁convaincr	-10.8735
▁provide	-10.8735
▁responsible	-10.8735
▁roof	-10.8735
▁eveille	-10.8735
▁souffle	-10.8735
▁attentive	-10.8735
▁prisonnier	-10.8735
▁prenez	-10.8735
▁Salut	-10.8735
▁actions	-10.8736
▁violent	-10.8739
adresse	-10.8749
▁defi	-10.8759
▁develop	-10.8778
ward	-10.8788
▁confus	-10.8804
▁Gra	-10.8807
▁col	-10.8811
▁merveille	-10.8832
▁aveugle	-10.8833
▁behavior	-10.8833
▁emotion	-10.8833
▁navire	-10.8833
▁photograph	-10.8833
▁silencieux	-10.8833
▁Italian	-10.8833
▁basket	-10.8833
▁addict	-10.8835
▁baisse	-10.8838
ku	-10.8838
▁dying	-10.8845
lier	-10.8848
▁gain	-10.8855
▁ouvri	-10.8877
▁puissi	-10.8883
bour	-10.8887
▁excite	-10.8896
▁cacher	-10.89
▁artiste	-10.8902
▁lecon	-10.8915
▁tru	-10.8923
▁Montre	-10.893
endant	-10.8931
alphabet	-10.8932
▁stamp	-10.8932
▁Demande	-10.8932
▁vendredi	-10.8934
▁Mother	-10.8934
chant	-10.8935
▁generation	-10.8937
▁nurse	-10.8938
▁error	-10.8938
▁pool	-10.894
▁samedi	-10.8942
▁hiver	-10.8943
▁abandon	-10.8944
arch	-10.8948
▁band	-10.8951
▁delight	-10.8996
▁Certaine	-10.9009
▁multi	-10.9013
▁cancel	-10.9017
▁prendrai	-10.9025
▁differ	-10.9027
▁Facebook	-10.9032
▁mathematic	-10.9032
▁reservation	-10.9032
▁stomach	-10.9032
▁complex	-10.9032
▁sharp	-10.9032
▁Open	-10.9032
▁faudra	-10.9032
▁Bresil	-10.9032
▁siege	-10.9033
▁evident	-10.9035
▁sports	-10.9037
▁loss	-10.9038
▁Bible	-10.9039
▁cartes	-10.9061
▁offre	-10.9062
▁neighbors	-10.9063
▁Amerique	-10.9065
▁debt	-10.9067
▁demand	-10.9073
▁legs	-10.9073
▁legal	-10.909
▁prendra	-10.9098
▁dote	-10.9103
▁climb	-10.9103
erreur	-10.9109
▁gene	-10.9116
por	-10.9121
▁available	-10.9133
▁gentleman	-10.9133
▁incapable	-10.9133
▁robot	-10.9133
▁Speak	-10.9134
▁Chacun	-10.9134
▁further	-10.9134
▁canape	-10.9134
▁cloche	-10.9136
▁pur	-10.9138
▁plaindr	-10.9144
▁debarrasser	-10.9148
raw	-10.915
▁Love	-10.9156
▁helping	-10.916
appreci	-10.9176
▁dessin	-10.9195
arrete	-10.92
mail	-10.9208
▁soif	-10.9209
▁oil	-10.9211
▁queue	-10.9214
▁barbe	-10.9214
▁repos	-10.9216
nion	-10.9217
▁hearing	-10.9221
▁Fuji	-10.9235
▁piscine	-10.9235
▁portefeuille	-10.9235
▁produire	-10.9235
▁defaut	-10.9235
▁drown	-10.9236
▁Help	-10.9236
instituteur	-10.9236
▁crise	-10.9249
▁affect	-10.9251
eprouv	-10.9253
avaient	-10.9257
ecris	-10.9257
▁leader	-10.9262
▁climat	-10.9264
▁desert	-10.9281
▁tirer	-10.9284
▁champ	-10.9285
▁developpe	-10.9293
▁existe	-10.9314
▁exact	-10.9319
▁whom	-10.9321
▁demandai	-10.9322
▁commis	-10.9338
▁Octob	-10.9338
▁surface	-10.9338
▁delicious	-10.9338
▁verrouill	-10.9339
▁dessert	-10.9339
▁prisoner	-10.9343
▁constant	-10.9347
▁tickets	-10.9347
bel	-10.9348
▁exp	-10.9348
▁Mars	-10.936
▁adopte	-10.936
▁dad	-10.9363
▁Entre	-10.9365
▁repare	-10.9374
▁excited	-10.9377
▁bol	-10.9384
▁arrivera	-10.9393
▁tenu	-10.9402
▁seche	-10.9404
▁futur	-10.9413
▁bite	-10.9424
▁souffre	-10.9431
implement	-10.9441
▁easier	-10.9443
▁ghost	-10.9443
▁poupee	-10.9443
▁vegetables	-10.9443
▁circulati	-10.9443
▁operation	-10.9444
ngle	-10.9444
▁spot	-10.9446
aking	-10.9453
▁faisais	-10.946
▁rope	-10.946
▁Say	-10.9462
▁glo	-10.9463
Australie	-10.9464
aujourd	-10.9464
▁cul	-10.9466
▁squirrel	-10.947
▁coule	-10.9472
▁appartient	-10.9482
▁expecting	-10.9491
appellerai	-10.9502
▁decouvrir	-10.9509
ong	-10.9515
▁Leur	-10.9522
▁increase	-10.9548
▁contraire	-10.9548
▁scandal	-10.9548
▁atteint	-10.9548
▁wealth	-10.9548
▁refusa	-10.9548
▁gi	-10.9548
▁bedroom	-10.9549
▁saoul	-10.955
▁hum	-10.9551
▁vaisselle	-10.9552
assurer	-10.9552
▁Jean	-10.9553
▁hill	-10.9555
hal	-10.9561
▁ideal	-10.9561
▁Parlez	-10.9563
▁design	-10.9564
▁suggestion	-10.9564
espoir	-10.957
▁affair	-10.9574
▁Eat	-10.9578
▁arrange	-10.958
▁suffit	-10.9581
▁intelligente	-10.9594
▁disait	-10.9614
voir	-10.9617
▁pourriez	-10.9626
▁demi	-10.9632
▁lapin	-10.9642
▁entire	-10.965
▁scientist	-10.9654
▁Brown	-10.9654
▁amount	-10.9654
▁rumor	-10.9654
▁stress	-10.9654
▁hung	-10.9655
▁conclusion	-10.9655
▁attache	-10.9656
▁beurre	-10.9657
▁headache	-10.9657
▁pack	-10.9658
▁activit	-10.9658
▁season	-10.9659
▁original	-10.9668
urgence	-10.9675
▁qualite	-10.9677
R	-10.9677
F	-10.9677
▁calcul	-10.9683
▁epaule	-10.9684
▁recev	-10.9686
▁sombre	-10.9687
▁suiv	-10.9697
▁laid	-10.9697
▁mental	-10.9698
▁sec	-10.9699
▁jeux	-10.97
▁impr	-10.971
▁complet	-10.9721
▁regardai	-10.9727
▁explique	-10.9732
▁aimez	-10.9743
▁sand	-10.9745
▁physique	-10.9762
▁genial	-10.9762
▁thief	-10.9762
▁Father	-10.9762
▁third	-10.9762
▁naked	-10.9763
▁regime	-10.9763
▁soutien	-10.9763
▁claim	-10.9764
▁pray	-10.9764
▁protest	-10.9765
▁facture	-10.9766
▁venai	-10.977
▁Jamai	-10.9772
▁entra	-10.9774
▁chanteur	-10.9775
▁fassi	-10.9775
▁celles	-10.9775
▁chasse	-10.9775
essaye	-10.9788
▁servi	-10.9797
▁fighting	-10.9802
▁hall	-10.9802
▁laissa	-10.9802
▁Avant	-10.9817
imeriez	-10.9829
▁donnee	-10.9842
rum	-10.9843
▁monter	-10.9849
▁sommet	-10.9851
leur	-10.9852
▁Ferme	-10.9861
▁hobby	-10.9871
▁spectacle	-10.9871
▁knowledge	-10.9871
▁Berlin	-10.9871
▁inutile	-10.9871
▁accent	-10.9871
▁stock	-10.9871
▁dingue	-10.9871
▁rise	-10.9873
▁quick	-10.9875
▁poete	-10.9879
▁brain	-10.9882
▁author	-10.989
▁Faisons	-10.9892
echec	-10.9899
▁colon	-10.9899
▁Japonais	-10.9902
▁complaining	-10.9906
▁conditions	-10.9911
▁expression	-10.9917
▁method	-10.9927
entree	-10.9928
▁approche	-10.9928
▁importance	-10.9952
▁totale	-10.9956
▁viennent	-10.9959
where	-10.9963
▁wo	-10.9972
▁fantome	-10.998
▁recommend	-10.998
▁thirsty	-10.998
▁punished	-10.998
▁losing	-10.9981
▁obey	-10.9981
▁includ	-10.9981
▁prize	-10.9982
▁tremblement	-10.9983
▁draw	-10.9983
▁cookies	-10.9984
▁miles	-10.9987
▁shin	-10.9988
▁writer	-10.9991
▁bicyclette	-10.9992
▁shocked	-10.9995
hand	-10.9997
▁yes	-11.0001
ordinateur	-11.0007
▁oppose	-11.0008
▁evidence	-11.001
ox	-11.0021
▁assise	-11.0025
▁teaching	-11.0029
issant	-11.0032
▁desespere	-11.0038
▁oublier	-11.0043
▁beaux	-11.0044
▁modern	-11.0046
▁compren	-11.0052
▁personnel	-11.0074
▁progres	-11.0086
▁revi	-11.0087
▁songe	-11.0088
▁trembl	-11.0089
▁donnerai	-11.0091
▁birth	-11.0091
▁Nancy	-11.0092
▁Africa	-11.0092
▁achieve	-11.0092
▁criminel	-11.0092
▁Appelle	-11.0092
▁meurtre	-11.0092
▁damage	-11.0092
▁matiere	-11.0092
▁refer	-11.0092
▁value	-11.0092
ssement	-11.0096
▁cash	-11.0096
▁mangent	-11.0097
▁trace	-11.0097
▁trouvait	-11.0097
▁decida	-11.0097
▁compare	-11.0098
odeur	-11.0101
etaient	-11.0102
enfants	-11.0107
▁ble	-11.0116
▁personnelle	-11.012
▁repri	-11.0123
▁conseilla	-11.0124
▁dry	-11.0125
▁moderne	-11.0137
▁bete	-11.0149
▁washed	-11.0155
rust	-11.018
▁Dur	-11.0188
▁consta	-11.0197
▁proper	-11.0197
▁Christophe	-11.0204
▁encourage	-11.0204
▁promets	-11.0204
▁Watch	-11.0204
▁kilo	-11.0204
▁burst	-11.0204
▁remettre	-11.0204
▁menteur	-11.0208
▁grossier	-11.0213
▁Excusez	-11.0217
▁severe	-11.0225
Angl	-11.0233
▁clef	-11.0235
▁prevenu	-11.0238
▁respecte	-11.0255
▁battu	-11.0255
▁notes	-11.0268
omac	-11.0268
avions	-11.0272
▁dejeune	-11.0273
▁Passe	-11.0276
▁cards	-11.0277
▁tiens	-11.0282
▁supporte	-11.0287
▁poulet	-11.0288
▁pig	-11.0294
▁peau	-11.0296
▁passage	-11.0296
▁badly	-11.0307
▁princess	-11.0314
▁happi	-11.0317
▁Attends	-11.0318
▁disponible	-11.0318
▁license	-11.0318
▁maternelle	-11.0318
▁confess	-11.0318
▁deprime	-11.0318
▁concentre	-11.0318
▁shape	-11.0318
▁corner	-11.0318
▁colline	-11.0318
▁connaissait	-11.0319
▁Day	-11.0319
▁major	-11.032
▁Final	-11.032
▁self	-11.0329
▁toilette	-11.033
▁tourner	-11.0333
▁tro	-11.0333
onze	-11.0333
▁cout	-11.0334
▁gorge	-11.0337
▁nuts	-11.0337
▁vint	-11.0339
▁inform	-11.0339
▁limit	-11.0341
▁francaise	-11.0342
▁connaissez	-11.0344
Algerie	-11.0348
importance	-11.0348
T	-11.0349
▁uvre	-11.0376
▁grace	-11.0381
▁greatest	-11.0384
etude	-11.0406
ini	-11.0406
▁pure	-11.0411
old	-11.0422
▁etudiante	-11.0431
arret	-11.0432
honneur	-11.0432
▁debrouille	-11.0432
▁octobre	-11.0432
▁pregnant	-11.0432
▁relative	-11.0432
▁approach	-11.0432
▁choque	-11.0433
▁ecriv	-11.0433
▁shame	-11.0433
▁colour	-11.0433
▁foolish	-11.0434
▁jaune	-11.0434
▁kick	-11.0434
▁Luc	-11.0435
▁decede	-11.0436
▁Essayez	-11.0436
▁gate	-11.0439
▁anyway	-11.044
▁bagage	-11.0441
▁ban	-11.0445
▁denie	-11.0447
herbe	-11.0456
▁organise	-11.0461
▁cab	-11.0468
▁mour	-11.0478
▁escaped	-11.0482
▁sou	-11.0484
atif	-11.0499
▁entraine	-11.05
▁nomme	-11.0521
pendant	-11.0529
▁scream	-11.0529
▁aimer	-11.0534
mber	-11.0543
▁allergi	-11.0544
▁cap	-11.0545
▁album	-11.0549
▁confectionne	-11.0549
▁remark	-11.0549
▁serpent	-11.0549
▁similar	-11.0549
▁evil	-11.0549
▁moving	-11.0549
▁performance	-11.0549
▁instructions	-11.055
▁gather	-11.055
▁illness	-11.055
▁remercie	-11.0553
▁refai	-11.0554
▁data	-11.0555
▁ras	-11.0558
▁influence	-11.0568
▁level	-11.0573
▁CD	-11.0581
ennemi	-11.0582
▁horr	-11.0583
▁confused	-11.0584
▁pardonner	-11.0584
▁compar	-11.0601
▁chateau	-11.0607
vision	-11.0612
▁tourist	-11.0613
oche	-11.0622
▁reposer	-11.0623
▁twin	-11.0634
▁compet	-11.0654
▁connect	-11.0658
▁majorit	-11.0664
▁farm	-11.0666
▁Sortez	-11.0666
▁symbol	-11.0666
▁yellow	-11.0666
▁brillant	-11.0666
▁Mettez	-11.0666
▁website	-11.0666
▁request	-11.0666
▁behave	-11.0667
▁honor	-11.0667
▁epuise	-11.0667
▁branche	-11.0668
prennent	-11.0668
▁Alice	-11.0668
▁joli	-11.0668
▁repeat	-11.0669
▁destination	-11.0672
▁voulaient	-11.0676
▁lourd	-11.0677
▁panne	-11.0679
▁objectif	-11.0685
▁saint	-11.0686
ception	-11.0692
▁clearly	-11.0699
covered	-11.0701
▁explosion	-11.0705
▁concerne	-11.0712
teindre	-11.0713
▁ocean	-11.0724
▁gui	-11.0738
▁reveiller	-11.0741
armee	-11.0746
merde	-11.0761
▁etage	-11.0762
rang	-11.0764
▁contribu	-11.0767
▁sales	-11.0777
▁conduite	-11.078
▁application	-11.0785
▁awesome	-11.0785
▁cinquante	-11.0785
▁experiment	-11.0785
▁describe	-11.0785
▁mobile	-11.0785
▁Close	-11.0785
▁Write	-11.0785
▁round	-11.0786
▁deroule	-11.0786
▁brosse	-11.0786
▁weapon	-11.0786
▁speed	-11.0787
▁toucher	-11.0801
▁pleasant	-11.0808
▁accompli	-11.0811
hook	-11.0824
▁averti	-11.0827
accepter	-11.0835
existe	-11.0837
▁skin	-11.0842
▁arriere	-11.0845
▁dirais	-11.0847
entend	-11.0855
V	-11.0855
▁auras	-11.0861
▁none	-11.0862
▁aimai	-11.0864
▁peindr	-11.0868
▁dentiste	-11.087
▁resta	-11.0873
▁discute	-11.0876
▁interessee	-11.0885
▁ressenti	-11.089
ah	-11.0892
▁parie	-11.0903
admet	-11.0905
▁Malheureuse	-11.0906
▁Pouvons	-11.0906
assurance	-11.0906
▁resign	-11.0906
SA	-11.0908
▁gars	-11.0908
▁everywhere	-11.0908
acquisition	-11.0909
▁eteint	-11.0913
▁customer	-11.0929
▁create	-11.0931
viennent	-11.0933
ification	-11.0937
rry	-11.0937
▁victime	-11.0937
▁pourrions	-11.0937
habille	-11.0943
Europe	-11.0944
emploi	-11.0944
▁dentist	-11.0944
▁traiter	-11.0954
▁mouille	-11.0955
▁interet	-11.0963
▁anger	-11.0964
▁succeeded	-11.0967
▁espagnol	-11.0969
▁employee	-11.097
hol	-11.097
ov	-11.0981
▁Men	-11.0986
▁neck	-11.0988
▁pousser	-11.1005
hrew	-11.1005
▁reten	-11.1008
avant	-11.1012
▁difficulty	-11.1016
▁sudden	-11.1018
▁Pres	-11.1021
▁oranges	-11.1023
vin	-11.1025
▁principale	-11.1025
▁jail	-11.1027
▁George	-11.1028
▁absurd	-11.1028
▁consacre	-11.1028
▁disturb	-11.1028
load	-11.1028
▁comfortable	-11.1029
Espagn	-11.1031
▁Crois	-11.1032
▁mouton	-11.1035
▁mignonne	-11.1037
▁latin	-11.1038
▁Montrez	-11.104
▁rencontr	-11.1049
▁discovered	-11.1054
▁acces	-11.1057
gle	-11.1064
endroit	-11.1067
ji	-11.1081
▁repose	-11.1101
▁mecs	-11.1111
▁pond	-11.1112
omic	-11.114
ouvr	-11.1144
▁echappe	-11.1145
▁affr	-11.1146
cour	-11.1148
semblant	-11.1151
▁Continue	-11.1151
▁political	-11.1151
▁quartier	-11.1151
▁genie	-11.1151
▁temple	-11.1151
▁Whil	-11.1152
▁offense	-11.1152
▁blessure	-11.1152
▁kabyle	-11.1152
automne	-11.1153
▁Voyez	-11.1155
▁roule	-11.1156
▁Latin	-11.1156
▁humaine	-11.1157
▁tien	-11.1157
▁effectue	-11.1158
▁tante	-11.1173
▁mark	-11.1173
▁ecureuil	-11.1177
ving	-11.1186
▁diet	-11.119
▁effet	-11.1194
▁capacite	-11.1195
enseigner	-11.1211
▁supplie	-11.1215
achete	-11.122
▁options	-11.1226
▁army	-11.1233
▁suivant	-11.1234
▁recover	-11.1239
▁victim	-11.1244
▁crowd	-11.1246
▁foi	-11.1248
venue	-11.1263
▁ivre	-11.1265
▁etude	-11.1272
▁dancing	-11.1276
▁diplome	-11.1276
▁enceinte	-11.1276
▁fashion	-11.1276
▁jazz	-11.1276
▁spread	-11.1276
▁traduit	-11.1276
▁contrat	-11.1276
▁kidding	-11.1277
▁capture	-11.1277
▁gueri	-11.1277
▁attractive	-11.1278
▁exhausted	-11.1284
▁sensible	-11.1284
▁jeans	-11.1288
▁expose	-11.1298
▁Lis	-11.1301
▁model	-11.1301
▁diable	-11.1307
▁verifie	-11.131
▁wide	-11.1311
▁souris	-11.1314
▁Jesus	-11.1317
envoye	-11.1319
▁copy	-11.1324
stro	-11.133
▁objet	-11.133
▁Etai	-11.1333
humanite	-11.1333
▁Mange	-11.1336
▁methode	-11.1337
like	-11.1354
▁plate	-11.1361
▁tax	-11.1361
▁effect	-11.1363
▁celibataire	-11.1403
▁mirror	-11.1403
▁naissance	-11.1403
▁pantalon	-11.1403
▁unhappy	-11.1403
applique	-11.1403
▁amazing	-11.1403
▁mondiale	-11.1403
▁Depeche	-11.1403
▁quinze	-11.1403
▁langage	-11.1403
▁tough	-11.1403
abi	-11.1403
▁measure	-11.1403
▁Listen	-11.1403
▁separate	-11.1403
▁relationship	-11.1403
▁assume	-11.1404
factory	-11.1407
▁Mal	-11.1409
hesite	-11.141
▁Bonne	-11.1413
▁loup	-11.1414
▁cassee	-11.1425
▁created	-11.1442
▁tip	-11.1444
aucun	-11.1452
▁humeur	-11.1454
▁Americain	-11.1462
▁mechant	-11.1472
▁convince	-11.1495
naire	-11.1516
▁responsibilit	-11.1516
mbre	-11.1519
interromp	-11.1531
nfortunate	-11.1531
▁complicated	-11.1531
▁eloigne	-11.1531
▁reproche	-11.1531
▁ugly	-11.1531
▁depressed	-11.1531
▁ceinture	-11.1531
▁castle	-11.1531
▁efficace	-11.1532
▁childhood	-11.1532
▁classroom	-11.1532
▁marque	-11.1532
▁euros	-11.1532
▁Jusqu	-11.1533
▁quantite	-11.1534
▁Italie	-11.1535
▁friendship	-11.1536
▁pareille	-11.1536
▁candle	-11.1539
▁arret	-11.1542
▁travaillai	-11.1544
▁serre	-11.1555
▁Sors	-11.1556
▁plaisante	-11.1562
etudiant	-11.1577
▁magic	-11.1586
bbed	-11.1591
▁texte	-11.1596
▁observ	-11.1601
▁observe	-11.1612
▁froide	-11.163
▁sain	-11.1632
▁servir	-11.164
▁ignor	-11.1641
▁absorb	-11.1661
▁volunteer	-11.1661
▁exchange	-11.1661
▁society	-11.1661
▁studies	-11.1661
▁Betty	-11.1661
▁joie	-11.1661
▁pressure	-11.1661
▁cerveau	-11.1661
▁uniform	-11.1662
▁vague	-11.1662
▁attire	-11.1663
▁curious	-11.1664
▁aliment	-11.1666
▁verrai	-11.1678
▁degree	-11.1679
▁guests	-11.168
▁Act	-11.169
▁obligee	-11.1691
H	-11.171
Afri	-11.171
▁mayor	-11.1712
▁plants	-11.1713
▁tradition	-11.1719
▁Seul	-11.1731
issons	-11.1732
▁epoque	-11.1741
▁translated	-11.1748
ified	-11.1763
soyons	-11.1783
fort	-11.1786
▁cuisinier	-11.1793
▁fabrique	-11.1793
▁politician	-11.1793
▁supplementaire	-11.1793
▁convient	-11.1793
▁venez	-11.1793
▁Spain	-11.1793
scription	-11.1793
▁diary	-11.1793
▁banane	-11.1793
▁ecrivain	-11.1793
▁Water	-11.1797
▁creve	-11.1804
▁commentaire	-11.1807
▁current	-11.181
▁economy	-11.1812
▁aunt	-11.1813
▁idiote	-11.1813
▁tape	-11.1816
▁offend	-11.1827
▁enfan	-11.1828
▁reply	-11.183
▁biscuits	-11.1855
▁stronger	-11.1857
▁agee	-11.186
▁concerned	-11.188
apporter	-11.1895
▁rendit	-11.191
▁fixed	-11.1915
Etat	-11.1924
▁airplane	-11.1926
▁alternative	-11.1926
▁fichier	-11.1926
▁gueule	-11.1926
▁neighbour	-11.1926
▁rabbit	-11.1926
▁kilometre	-11.1926
▁handsome	-11.1926
▁baiser	-11.1926
▁guard	-11.1926
▁caisse	-11.1927
▁zone	-11.1927
▁crash	-11.1929
▁devra	-11.1929
▁crush	-11.1929
▁craign	-11.1929
▁board	-11.193
▁production	-11.1931
▁approv	-11.1933
▁soft	-11.1933
▁flic	-11.1934
▁European	-11.1935
▁block	-11.1938
▁Colomb	-11.1939
▁sweater	-11.1941
▁failli	-11.1946
▁annonce	-11.1949
▁lower	-11.195
▁mission	-11.1961
▁trusted	-11.1964
▁suck	-11.1966
arreta	-11.197
▁inquiete	-11.1976
iel	-11.1978
ably	-11.1983
etend	-11.1991
▁passager	-11.1991
▁graduate	-11.1993
▁retrouve	-11.2001
elected	-11.2004
▁prevois	-11.2021
▁arrogant	-11.2024
▁mouru	-11.2036
▁menu	-11.2037
ota	-11.2057
▁repair	-11.2059
▁Attendez	-11.2061
▁cheek	-11.2061
▁communication	-11.2061
▁hurried	-11.2061
▁strength	-11.2061
▁rejoindr	-11.2061
▁false	-11.2061
▁spirit	-11.2061
▁century	-11.2061
▁simply	-11.2061
▁regular	-11.2061
▁voyez	-11.2061
▁adolescent	-11.2061
▁competition	-11.2061
▁levre	-11.2063
▁construction	-11.2063
▁piege	-11.2064
▁courriel	-11.2065
low	-11.2067
▁kindness	-11.2069
▁reality	-11.2071
▁saison	-11.2076
habit	-11.2078
▁assistance	-11.2081
gging	-11.2084
▁jalouse	-11.2085
auto	-11.2088
▁embarrassed	-11.2089
▁members	-11.2089
▁laissee	-11.2089
▁retirer	-11.2098
ambi	-11.21
▁directe	-11.2109
▁aurez	-11.2113
Allemagne	-11.2113
education	-11.2114
▁opera	-11.2117
▁skiing	-11.2118
phone	-11.2127
▁process	-11.2133
▁journa	-11.2161
▁laisserai	-11.2162
▁noon	-11.2163
▁croyais	-11.2183
▁lately	-11.2192
▁revele	-11.2194
evolution	-11.2198
▁citizen	-11.2198
▁reputation	-11.2198
▁research	-11.2198
▁supermarche	-11.2198
▁supermarket	-11.2198
▁fausse	-11.2198
▁apparence	-11.2198
▁quarante	-11.2198
▁delicieux	-11.2198
▁Compare	-11.2198
▁canadien	-11.2198
▁nerveuse	-11.22
▁grimpe	-11.22
▁manner	-11.22
titude	-11.22
▁task	-11.2201
▁principal	-11.2201
▁depasse	-11.2204
▁naturel	-11.2206
▁wild	-11.2208
▁pity	-11.2209
utilise	-11.2211
echapper	-11.2216
off	-11.2219
▁Lui	-11.222
▁sheep	-11.222
▁hired	-11.2231
yond	-11.2235
▁slight	-11.2235
▁gla	-11.2253
▁utilisa	-11.2257
▁bouger	-11.2257
▁rely	-11.2263
▁periode	-11.2263
▁emmene	-11.2265
▁confident	-11.2285
▁Pardon	-11.2286
▁souleve	-11.229
▁butter	-11.2295
▁doue	-11.2297
▁restee	-11.2299
▁manuel	-11.2303
▁origin	-11.2309
roc	-11.2314
▁compromis	-11.2337
▁fifty	-11.2337
▁gunshot	-11.2337
▁volontaire	-11.2337
▁terrifie	-11.2337
▁politics	-11.2337
▁miroir	-11.2337
▁veste	-11.2337
▁snake	-11.2337
▁bound	-11.2337
▁obei	-11.2337
▁hurle	-11.2337
evanoui	-11.2338
▁apply	-11.2338
▁voudriez	-11.2339
▁tendance	-11.2339
▁odd	-11.2339
▁serviette	-11.2341
▁detruit	-11.2341
▁matinee	-11.2341
▁soulage	-11.2342
▁threaten	-11.2342
▁reside	-11.2343
▁passenger	-11.2346
▁India	-11.2347
▁stairs	-11.235
▁bitter	-11.2352
▁agit	-11.2353
▁tromper	-11.2354
▁elu	-11.2359
▁invitee	-11.2361
▁admis	-11.2374
▁bleue	-11.2375
▁hole	-11.2385
▁sauter	-11.2391
▁hop	-11.2392
attention	-11.2394
▁ose	-11.2397
▁beside	-11.2397
▁plainte	-11.2404
▁faint	-11.2407
emmener	-11.2412
▁Chi	-11.2413
▁terminee	-11.2418
amuser	-11.2431
▁emprunte	-11.2437
▁invente	-11.244
ular	-11.2443
▁sweat	-11.2463
▁cooperati	-11.2464
▁survive	-11.2468
▁rendrai	-11.2471
▁conclu	-11.2477
▁Attention	-11.2478
▁Greek	-11.2478
▁White	-11.2478
▁genius	-11.2478
▁stories	-11.2478
▁violon	-11.2478
▁brown	-11.2478
▁cercle	-11.2478
▁firm	-11.2478
▁pneu	-11.2478
▁consomme	-11.2478
▁awful	-11.2478
▁creme	-11.2478
▁income	-11.2478
▁impos	-11.2479
▁centaine	-11.2479
▁crack	-11.248
▁quotidienne	-11.248
▁enemies	-11.248
▁Shut	-11.2481
▁metal	-11.2484
▁banana	-11.2485
▁atteindre	-11.2495
▁exten	-11.2502
▁ignorance	-11.2507
▁member	-11.2512
▁actor	-11.2513
dmitted	-11.2515
gram	-11.2519
▁spa	-11.2527
▁monnaie	-11.2527
▁roll	-11.2533
avance	-11.2536
epoque	-11.2538
▁affecte	-11.2539
indiquer	-11.2545
▁posa	-11.2546
▁regretter	-11.2549
▁soudaine	-11.2556
▁profond	-11.2571
▁somme	-11.2592
ascenseur	-11.2621
▁Francais	-11.2621
▁World	-11.2621
▁caractere	-11.2621
▁confond	-11.2621
▁material	-11.2621
▁zero	-11.2621
▁soixante	-11.2621
▁spider	-11.2621
▁neighborhood	-11.2621
▁Three	-11.2621
▁bathroom	-11.2621
▁despise	-11.2621
▁veille	-11.2622
▁qualifie	-11.2622
▁escaliers	-11.2622
ommencons	-11.2622
▁argue	-11.2622
▁Human	-11.2623
▁balance	-11.2623
▁sors	-11.2626
▁reaction	-11.2628
▁vivait	-11.2628
▁sejourne	-11.263
▁percent	-11.2631
▁sud	-11.2631
▁banc	-11.2631
▁repondit	-11.2641
▁permett	-11.2641
▁leva	-11.2647
▁weigh	-11.2647
▁metres	-11.265
▁ouvre	-11.2659
▁lovely	-11.2665
▁sable	-11.2668
▁range	-11.2674
▁croissan	-11.2689
▁indique	-11.2699
▁eviter	-11.2704
▁organize	-11.2708
▁semblent	-11.2729
▁usage	-11.273
▁cesser	-11.2734
▁smaller	-11.2738
▁timbres	-11.274
▁radi	-11.2744
▁frapper	-11.2745
▁build	-11.2747
amie	-11.2748
▁vision	-11.2756
▁Ten	-11.2757
▁emergency	-11.2766
▁fifteen	-11.2766
▁goodbye	-11.2766
▁insurance	-11.2766
▁suspend	-11.2766
▁screw	-11.2766
▁baked	-11.2766
▁connaissais	-11.2766
▁Tiens	-11.2774
▁theater	-11.2774
▁suffisant	-11.2775
▁vivons	-11.2776
▁Vois	-11.278
▁Israel	-11.2784
▁Arab	-11.2784
▁disappeared	-11.2786
▁malheureux	-11.2803
▁louer	-11.281
most	-11.2819
vingt	-11.282
▁thin	-11.2826
▁salade	-11.2828
▁partager	-11.2829
▁center	-11.2847
wise	-11.2848
▁Happ	-11.2863
▁bark	-11.2868
▁Angl	-11.2871
▁reveillee	-11.2894
q	-11.2895
▁lourde	-11.29
acte	-11.291
istic	-11.291
▁Remember	-11.2913
▁commercial	-11.2913
▁constitue	-11.2913
▁dinosaur	-11.2913
▁fievre	-11.2913
▁minuit	-11.2913
▁possibility	-11.2913
▁reconnait	-11.2913
▁fiance	-11.2913
▁prenom	-11.2913
▁defeat	-11.2913
▁pigeon	-11.2913
▁effective	-11.2915
▁Wom	-11.2915
▁assister	-11.2922
▁code	-11.2925
▁emb	-11.2927
▁noire	-11.2932
▁sacre	-11.2935
▁prouver	-11.2939
▁remporte	-11.294
▁souten	-11.2941
estime	-11.2945
trui	-11.2947
▁hug	-11.2952
▁bande	-11.2955
▁trouvent	-11.2957
▁enerve	-11.2972
aute	-11.2978
▁repeter	-11.2986
▁smil	-11.2986
▁chatte	-11.2999
emporte	-11.3001
▁conven	-11.3004
▁bouge	-11.3004
▁subi	-11.3005
▁Mom	-11.3015
▁occuper	-11.3041
▁Nic	-11.3042
▁conten	-11.3047
aimez	-11.3051
▁poster	-11.3056
offe	-11.3056
▁capita	-11.306
abylie	-11.3062
▁ecrase	-11.3062
▁frightened	-11.3062
▁jacket	-11.3062
▁picnic	-11.3062
▁plonge	-11.3062
▁elegant	-11.3062
▁compliment	-11.3062
▁Croyez	-11.3062
▁parlons	-11.3063
▁eclate	-11.3064
▁sourd	-11.3066
▁lips	-11.3067
▁leger	-11.3069
▁papa	-11.3069
apercu	-11.307
▁silly	-11.307
▁belt	-11.3074
▁Star	-11.3075
▁properly	-11.3075
▁fever	-11.3075
▁preferable	-11.3077
▁couch	-11.3079
▁taxes	-11.3081
utiliser	-11.3086
▁wave	-11.309
▁moteur	-11.3092
▁Pere	-11.3105
▁existence	-11.3109
▁essay	-11.3112
▁Pren	-11.3112
▁traitement	-11.312
entraine	-11.3129
shirt	-11.3129
▁electric	-11.3136
▁abandonner	-11.3139
ville	-11.3143
▁pop	-11.3144
▁salad	-11.315
▁blonde	-11.315
▁More	-11.3152
▁particuliere	-11.318
van	-11.3181
▁nap	-11.3183
▁fill	-11.3193
▁annoy	-11.3194
indre	-11.3199
▁hire	-11.3204
▁mord	-11.3212
▁General	-11.3213
▁midnight	-11.3213
▁respond	-11.3213
▁twelve	-11.3213
▁fleuve	-11.3213
▁gaspille	-11.3213
▁neglige	-11.3213
▁mouvement	-11.3213
▁Pierre	-11.3213
▁contient	-11.3214
grateful	-11.3214
▁creature	-11.3214
▁petrol	-11.3214
▁knee	-11.3214
▁tarte	-11.3215
▁sauce	-11.3215
environnement	-11.3216
ndra	-11.322
▁salue	-11.3222
▁saving	-11.3223
▁egg	-11.3223
▁professionnel	-11.3223
▁apparu	-11.3229
▁rond	-11.323
▁egal	-11.3235
▁proof	-11.3235
▁deeply	-11.3238
▁slippe	-11.3251
▁satisfaite	-11.3257
▁pardon	-11.3258
▁coince	-11.3262
▁former	-11.3262
▁prince	-11.3268
▁eclair	-11.3273
▁suggested	-11.3273
though	-11.3283
▁tenue	-11.3284
cade	-11.3297
▁ruin	-11.3302
pend	-11.3303
▁nail	-11.3309
▁courrie	-11.3329
▁scare	-11.3333
▁croie	-11.3333
▁pardonne	-11.3334
▁wound	-11.3337
▁varie	-11.3343
ium	-11.3351
▁remet	-11.3355
▁dish	-11.3355
horloge	-11.3367
▁camarade	-11.3367
▁monsieur	-11.3367
▁politicien	-11.3367
▁register	-11.3367
▁disagree	-11.3367
▁fought	-11.3367
▁polluti	-11.3367
▁Dispose	-11.3367
▁superieur	-11.3367
▁South	-11.3367
▁permit	-11.3368
▁terms	-11.3368
▁titre	-11.3368
▁sofa	-11.3369
▁enregistre	-11.337
▁thick	-11.337
▁ingeni	-11.3371
▁participer	-11.3373
▁jam	-11.3382
▁settle	-11.3383
▁Gardez	-11.3384
iable	-11.3385
▁gentilles	-11.3388
▁deaf	-11.3399
▁malin	-11.3402
▁online	-11.3408
▁skill	-11.3411
▁vomi	-11.3422
▁preoccupe	-11.3423
▁fallen	-11.343
▁secour	-11.3435
▁agi	-11.3443
▁suppl	-11.3444
▁blesser	-11.3461
▁disputer	-11.3478
▁dating	-11.348
▁Algerie	-11.3482
▁puissant	-11.3482
▁crea	-11.3483
▁alarm	-11.3489
▁discover	-11.3497
▁controler	-11.35
▁spending	-11.3501
▁sum	-11.3513
▁distribu	-11.3523
▁araignee	-11.3523
▁citoyen	-11.3523
▁plastique	-11.3523
▁positive	-11.3523
▁desperate	-11.3523
▁fluently	-11.3523
Valentin	-11.3524
▁pound	-11.3524
▁joking	-11.3524
▁paquet	-11.3524
▁dumb	-11.3526
▁appearance	-11.3526
▁freedom	-11.3528
▁sejour	-11.3529
▁greet	-11.3531
▁selfie	-11.3536
▁saigne	-11.3537
▁flag	-11.3538
▁pride	-11.3545
▁colle	-11.3551
▁tourna	-11.3558
emporter	-11.3561
▁poule	-11.3569
origine	-11.357
issait	-11.3571
put	-11.3575
▁basse	-11.3579
approche	-11.3585
▁plaint	-11.3586
▁defini	-11.3591
jour	-11.3592
▁March	-11.3592
▁recognized	-11.3599
ecrit	-11.3602
file	-11.3606
▁talented	-11.3607
▁visa	-11.3608
▁voter	-11.3608
activ	-11.3615
▁closer	-11.3619
anne	-11.3619
mination	-11.3626
berg	-11.3647
▁saute	-11.3649
▁custom	-11.3652
▁engine	-11.3661
▁beard	-11.3668
▁flow	-11.3674
▁pese	-11.3677
▁bague	-11.368
▁audience	-11.3682
▁detective	-11.3682
▁financier	-11.3682
▁maitrise	-11.3682
▁sauvage	-11.3682
▁square	-11.3682
▁charmant	-11.3682
▁First	-11.3682
▁chaussette	-11.3682
▁negative	-11.3682
embauche	-11.3682
▁Few	-11.3682
▁possession	-11.3685
▁franc	-11.3685
▁assistant	-11.3686
▁solaire	-11.3687
actrice	-11.3687
▁Long	-11.3695
▁entirely	-11.3697
▁Jones	-11.3702
▁south	-11.3711
▁amusee	-11.3713
▁sentez	-11.3715
enfer	-11.3719
▁allonge	-11.3729
▁climbed	-11.373
occupe	-11.3734
▁mentionne	-11.3738
▁height	-11.3752
▁soudain	-11.3755
espagnol	-11.3759
article	-11.376
election	-11.3769
jury	-11.3771
uko	-11.3779
▁occup	-11.3782
blo	-11.3783
▁permet	-11.3784
▁nord	-11.3793
▁familier	-11.3799
ador	-11.38
▁survenu	-11.3804
▁rub	-11.3805
uge	-11.3806
▁vente	-11.3811
bling	-11.3811
▁perdit	-11.3814
▁decue	-11.3823
allez	-11.3828
▁adulte	-11.3834
▁teache	-11.3838
Q	-11.3843
atmospher	-11.3843
immeuble	-11.3843
▁Chicago	-11.3843
▁furniture	-11.3843
▁Christian	-11.3843
▁expense	-11.3843
▁steak	-11.3844
▁adapt	-11.3844
▁battle	-11.3844
▁favourite	-11.3844
approuve	-11.3844
▁anxious	-11.3844
▁deviendra	-11.3844
▁remede	-11.3845
▁frontiere	-11.3845
▁arretee	-11.3847
▁successful	-11.3847
▁Roman	-11.3849
▁comprenez	-11.385
▁champion	-11.3855
▁directeur	-11.3869
▁Trouve	-11.3873
utilis	-11.3875
▁cuir	-11.3877
▁agir	-11.3885
▁ajouter	-11.389
▁sienne	-11.3892
▁legere	-11.3895
▁technologie	-11.3899
▁speci	-11.3901
▁distinguer	-11.3901
onde	-11.3902
▁decline	-11.3926
▁contest	-11.3926
▁signal	-11.3935
▁promener	-11.3939
▁Allemagne	-11.3944
▁plain	-11.3959
▁habille	-11.3963
▁concept	-11.3969
▁Joue	-11.3996
gie	-11.3999
▁meprise	-11.4002
▁British	-11.4007
▁inconnu	-11.4007
▁rough	-11.4007
▁rougi	-11.4007
▁narrow	-11.4007
▁ouvrage	-11.4007
▁logique	-11.4007
▁Aussi	-11.4007
▁micro	-11.4008
▁procure	-11.4008
▁drove	-11.4008
▁shake	-11.4009
▁merveilleuse	-11.4009
▁abeille	-11.4009
aventure	-11.4012
▁chang	-11.4014
▁mix	-11.4019
▁richesse	-11.402
▁careless	-11.4021
▁Change	-11.4022
▁useless	-11.4023
▁hesitate	-11.4027
▁Egypt	-11.4032
▁verte	-11.4036
▁travailleur	-11.4038
▁croyai	-11.4038
▁suffering	-11.4043
▁italien	-11.4049
▁psycholog	-11.4049
▁pouv	-11.4051
▁boil	-11.4058
entrer	-11.4072
▁border	-11.4075
▁enseignante	-11.4097
▁nourrir	-11.4102
artific	-11.4104
uvre	-11.4104
▁err	-11.4109
inner	-11.4126
▁normale	-11.4128
▁psych	-11.4132
▁favori	-11.4132
▁solved	-11.4132
▁Viv	-11.4133
▁captain	-11.4174
▁concentrate	-11.4174
▁instrument	-11.4174
▁professor	-11.4174
▁promotion	-11.4174
▁surprend	-11.4174
▁defense	-11.4174
▁ramene	-11.4174
▁publie	-11.4174
▁pianist	-11.4174
eiko	-11.4174
▁virus	-11.4174
▁element	-11.4175
▁skirt	-11.4176
▁voila	-11.4176
▁survecu	-11.4177
etagere	-11.4177
▁invest	-11.4178
▁ferions	-11.418
▁brille	-11.418
▁shout	-11.4182
▁disposons	-11.4186
▁predict	-11.4191
▁rapid	-11.4193
▁privee	-11.42
humour	-11.4202
▁statue	-11.4206
▁grain	-11.4233
▁bug	-11.4234
accept	-11.4239
uki	-11.4258
▁abuse	-11.4261
▁El	-11.4283
▁divorced	-11.4286
▁vive	-11.4295
▁jure	-11.4308
vienne	-11.4316
▁realiser	-11.4317
▁parking	-11.432
▁Bar	-11.433
▁Columb	-11.4344
▁interview	-11.4344
▁notebook	-11.4344
▁pronounce	-11.4344
▁punctual	-11.4344
▁Choose	-11.4344
▁impoli	-11.4344
▁divide	-11.4344
▁echange	-11.4344
▁occurred	-11.4344
▁Shall	-11.4344
▁majeur	-11.4346
ecoule	-11.4347
▁voudrait	-11.4348
▁signification	-11.4351
law	-11.4351
▁dangereuse	-11.4353
▁pipe	-11.4354
arriere	-11.4355
▁rendue	-11.4357
▁gentl	-11.436
▁montra	-11.4373
▁farmer	-11.4373
▁expres	-11.4374
▁north	-11.4375
▁resister	-11.4379
▁whenever	-11.4381
▁mordu	-11.4383
room	-11.439
▁Contr	-11.4405
▁gal	-11.4409
guere	-11.4413
▁cheva	-11.4416
▁reviendrai	-11.4424
▁sink	-11.4424
ocean	-11.4432
etoile	-11.4433
point	-11.4434
ako	-11.4441
▁economic	-11.4445
intimi	-11.4448
▁sages	-11.4452
▁attract	-11.4459
▁higher	-11.4483
▁singe	-11.4497
▁voudr	-11.4508
▁habillee	-11.451
▁crier	-11.451
▁journaliste	-11.4513
▁challenge	-11.4516
▁elevator	-11.4516
▁strike	-11.4516
▁brief	-11.4516
▁witness	-11.4516
▁disgust	-11.4516
▁budge	-11.4516
▁Robert	-11.4516
▁flies	-11.4516
▁elder	-11.4516
▁detendre	-11.4516
▁track	-11.4516
▁winning	-11.4516
▁bougie	-11.4516
▁Peter	-11.4517
▁meuble	-11.4517
▁remplace	-11.4517
▁formulaire	-11.4517
▁temper	-11.4517
▁gym	-11.4517
▁Dad	-11.4518
▁genou	-11.4519
▁Hand	-11.4519
▁Saint	-11.452
▁mouche	-11.452
ennuie	-11.4521
▁virtue	-11.4523
▁appren	-11.4523
▁persist	-11.4524
lves	-11.4524
▁rompu	-11.4529
▁freque	-11.4535
▁pants	-11.4535
▁ressent	-11.4539
▁enleve	-11.4546
▁repaired	-11.4554
▁egard	-11.4559
ommes	-11.4563
▁spare	-11.4567
▁eventual	-11.4576
▁addition	-11.4582
▁pension	-11.4588
installe	-11.4589
▁liquide	-11.4601
known	-11.4607
▁respecter	-11.4612
offrir	-11.4628
▁worrying	-11.463
industrie	-11.4638
▁perce	-11.464
▁connue	-11.4652
▁Russi	-11.4656
▁tap	-11.467
assassin	-11.4687
ajout	-11.4689
▁relie	-11.469
▁accustom	-11.4691
oxygen	-11.4691
▁Google	-11.4691
▁condamne	-11.4691
▁cuillere	-11.4691
▁improbable	-11.4691
▁independen	-11.4691
▁milliard	-11.4691
▁password	-11.4691
▁propriete	-11.4691
horizon	-11.4691
▁Appelez	-11.4691
▁announce	-11.4691
▁bullet	-11.4691
▁heaven	-11.4691
▁valuable	-11.4691
▁refrigerate	-11.4691
▁adorable	-11.4691
▁frappa	-11.4691
▁Trois	-11.4691
▁produis	-11.4691
appuye	-11.4691
▁rush	-11.4691
▁honey	-11.4692
▁millier	-11.4692
▁Papa	-11.4692
▁shelf	-11.4692
▁rescue	-11.4692
▁Smok	-11.4692
▁cochon	-11.4692
▁bienvenue	-11.4692
▁loan	-11.4692
▁official	-11.4692
▁mince	-11.4693
▁reception	-11.4695
▁plaisanterie	-11.4697
corn	-11.4701
▁bienvenu	-11.4701
▁adult	-11.4702
▁torture	-11.4702
▁raisin	-11.4704
▁someday	-11.4705
▁gache	-11.4706
▁arrivent	-11.4706
▁lampe	-11.4707
▁Fermez	-11.4707
▁classique	-11.4708
oublierai	-11.4711
▁seek	-11.4713
▁veuillez	-11.4714
▁chute	-11.4717
inclu	-11.4722
▁wishes	-11.4725
▁wounded	-11.4726
▁ambition	-11.4726
▁consult	-11.4728
▁dollar	-11.4736
▁shoe	-11.4736
head	-11.4755
▁prononce	-11.4756
▁pression	-11.4757
▁arabe	-11.476
▁retrouver	-11.477
▁selling	-11.4772
▁cage	-11.4772
▁served	-11.4782
neuf	-11.4801
▁demie	-11.4807
▁ajoute	-11.4826
▁accompagne	-11.4828
▁reviendra	-11.483
chose	-11.4831
▁embarrasse	-11.4833
huile	-11.4835
allons	-11.4857
▁civil	-11.487
▁automobile	-11.487
▁blush	-11.487
▁egoiste	-11.487
▁principe	-11.487
▁rassemble	-11.487
▁rembourse	-11.487
▁muscle	-11.487
▁reflect	-11.487
▁ecouta	-11.487
▁proximit	-11.487
▁conserve	-11.487
▁volonte	-11.487
▁postpone	-11.487
▁journey	-11.487
▁transforme	-11.4871
▁demeure	-11.4871
▁Coupe	-11.4871
▁cough	-11.4871
▁begun	-11.4871
▁ailleurs	-11.4872
▁juice	-11.4872
▁mystere	-11.4873
▁Arabic	-11.4873
▁Think	-11.4874
▁modele	-11.4876
▁chanteuse	-11.4876
▁accro	-11.4877
▁replace	-11.4878
▁cheated	-11.4885
▁souper	-11.4889
▁ange	-11.489
accompagner	-11.4892
▁invented	-11.4917
▁prenne	-11.4917
▁pate	-11.4939
▁Soon	-11.494
▁slo	-11.4941
▁miel	-11.4947
pon	-11.4949
ameliore	-11.4967
honnete	-11.4968
accuse	-11.4968
auriez	-11.4977
orea	-11.4983
▁marin	-11.4998
eleve	-11.5001
gger	-11.5003
▁souvien	-11.5003
▁Had	-11.5003
olish	-11.5008
▁meteo	-11.5012
accroche	-11.5022
▁prevoi	-11.5035
bar	-11.5037
omp	-11.504
▁romp	-11.5046
▁commit	-11.5052
▁celebrate	-11.5052
▁essential	-11.5052
▁financial	-11.5052
▁papillon	-11.5052
▁philosophi	-11.5052
▁ressource	-11.5052
▁ridicule	-11.5052
▁surround	-11.5052
▁victoire	-11.5052
▁violin	-11.5052
▁resource	-11.5052
▁ressens	-11.5052
▁produce	-11.5052
▁recolte	-11.5052
▁renverse	-11.5052
▁applie	-11.5052
ization	-11.5052
▁actress	-11.5052
▁surveille	-11.5052
▁revolution	-11.5052
▁cheer	-11.5053
▁reviens	-11.5053
horaire	-11.5054
▁bataille	-11.5054
▁Assure	-11.5054
▁commerce	-11.5054
▁mettez	-11.5054
envoie	-11.5055
▁economique	-11.5055
▁conducteur	-11.5055
▁deranger	-11.5057
▁wheel	-11.5059
▁batterie	-11.5063
craft	-11.5069
▁removed	-11.5074
▁augmentation	-11.5076
▁innocen	-11.5083
ecart	-11.5084
▁Nar	-11.5085
leg	-11.5094
▁evenement	-11.5095
▁according	-11.5104
venant	-11.5105
▁natif	-11.5117
▁melt	-11.5125
chiez	-11.514
▁tapis	-11.5143
interet	-11.5154
▁gele	-11.5155
▁chu	-11.517
▁rater	-11.5171
▁cleaning	-11.5178
▁sympath	-11.5193
▁amitie	-11.5196
umi	-11.5198
▁spy	-11.5205
▁Wi	-11.5217
uze	-11.522
▁plie	-11.5222
▁neiger	-11.5224
lumin	-11.523
▁souffr	-11.5233
▁Shakespeare	-11.5237
▁bottom	-11.5237
▁electronique	-11.5237
▁fascinat	-11.5237
▁flirt	-11.5237
▁indispensable	-11.5237
▁illusion	-11.5237
▁attirant	-11.5237
▁baleine	-11.5237
▁coffre	-11.5237
▁baigne	-11.5237
▁Voyons	-11.5237
▁raisonnable	-11.5237
▁tentative	-11.5237
▁towel	-11.5237
▁average	-11.5238
▁Learn	-11.5238
▁spoon	-11.5238
▁visible	-11.5241
▁praise	-11.5241
▁dormai	-11.5242
▁toilet	-11.5242
▁function	-11.5243
▁potatoes	-11.5245
▁Russia	-11.525
▁daily	-11.5252
▁logic	-11.5254
▁pareil	-11.5254
▁Carol	-11.5259
esperais	-11.526
▁grade	-11.5261
oudre	-11.5269
employe	-11.5307
▁confiden	-11.5307
▁environment	-11.5308
▁musicien	-11.5311
appor	-11.533
▁touriste	-11.5336
▁deny	-11.5343
attraper	-11.5354
▁reconnais	-11.5359
voted	-11.5367
▁rage	-11.537
▁angel	-11.5372
▁climate	-11.5373
▁pile	-11.5373
▁adopt	-11.5386
▁imagin	-11.5387
infirmier	-11.5425
▁plomb	-11.5426
brouillard	-11.5426
exploit	-11.5426
▁Arrive	-11.5426
▁Tanaka	-11.5426
▁locuteur	-11.5426
▁puzzle	-11.5426
▁okay	-11.5426
▁libere	-11.5426
▁calend	-11.5426
▁shave	-11.5426
▁selfish	-11.5427
▁bourre	-11.5427
▁dictat	-11.5427
▁accomplish	-11.5427
▁dislike	-11.543
acquer	-11.543
▁admett	-11.543
▁cuit	-11.5433
▁explore	-11.5445
incol	-11.5448
▁salon	-11.5456
▁command	-11.546
▁cabin	-11.546
▁grec	-11.5463
▁Miss	-11.5467
▁porc	-11.5467
▁crowded	-11.5471
▁demissionner	-11.5476
▁rendent	-11.5476
▁Park	-11.5484
▁Fair	-11.5496
amuse	-11.5498
lusieur	-11.5506
▁jeta	-11.5512
admire	-11.5534
▁buf	-11.5546
likely	-11.5549
▁survived	-11.5566
▁empl	-11.5585
▁float	-11.5595
▁noble	-11.5612
▁douz	-11.5615
▁Harvard	-11.5618
▁ceremonie	-11.5618
▁chevre	-11.5618
▁grammatical	-11.5618
▁plastic	-11.5618
▁vehicule	-11.5618
▁terrain	-11.5618
▁espece	-11.5618
▁invention	-11.5618
▁garanti	-11.5618
▁monkey	-11.5618
▁renvoye	-11.5618
▁fence	-11.5618
▁cheque	-11.5619
▁malheureuse	-11.5619
▁Sud	-11.5619
▁faith	-11.5619
▁temoin	-11.5619
▁reduce	-11.562
▁foutre	-11.5621
▁concour	-11.5621
▁socks	-11.5622
▁Anglais	-11.5623
▁Tenez	-11.5624
▁musician	-11.5625
▁standard	-11.5625
▁depose	-11.5626
▁jupe	-11.5628
▁secretaire	-11.5635
▁noye	-11.5638
▁Pay	-11.5638
▁saviez	-11.564
▁entendi	-11.5641
▁heavi	-11.5641
▁empeche	-11.5643
▁ferons	-11.5644
▁poke	-11.5646
▁screaming	-11.565
▁amical	-11.5653
▁curieux	-11.5659
ecriture	-11.566
▁demarrer	-11.5661
▁Islam	-11.5663
▁pilot	-11.5672
▁enquete	-11.5674
mpire	-11.5676
▁lemon	-11.5685
▁remonter	-11.5688
▁option	-11.5696
▁suivante	-11.5698
▁goutte	-11.5698
▁detestent	-11.5702
oublier	-11.5702
apprenti	-11.571
aviez	-11.5716
objet	-11.573
finitely	-11.5742
economise	-11.5747
▁bac	-11.575
blew	-11.5756
▁pilote	-11.576
▁fog	-11.5769
▁individu	-11.5801
institutrice	-11.5814
▁composition	-11.5814
▁exciting	-11.5814
▁female	-11.5814
▁precedent	-11.5814
▁teenager	-11.5814
▁preparing	-11.5814
▁technique	-11.5814
▁swear	-11.5814
▁folie	-11.5814
▁whisper	-11.5814
▁vitamin	-11.5814
▁etabli	-11.5814
▁pirate	-11.5814
▁mystery	-11.5814
▁proverb	-11.5815
▁suspicious	-11.5815
▁policy	-11.5815
▁religious	-11.5815
▁rejete	-11.5815
▁North	-11.5816
▁nucleaire	-11.5816
▁racist	-11.5817
▁Next	-11.5817
▁communiqu	-11.5818
▁souhaiterais	-11.5819
▁brand	-11.582
▁aimable	-11.5822
▁treiz	-11.5825
abandonne	-11.5829
▁ambulance	-11.583
▁rayon	-11.5839
▁annoying	-11.5839
▁barking	-11.5842
▁incident	-11.5844
▁eclata	-11.5845
oiseau	-11.5846
▁participate	-11.585
▁incredible	-11.5852
▁moyenne	-11.5854
▁loue	-11.5867
▁chaine	-11.5869
▁magi	-11.5869
▁contacter	-11.5884
▁corriger	-11.5884
▁reel	-11.5889
▁Aimerai	-11.5892
▁tenta	-11.5895
▁holding	-11.5895
▁foire	-11.5906
plan	-11.5925
G	-11.593
champ	-11.5939
inquieter	-11.5943
image	-11.5957
ternal	-11.5958
▁fonctionner	-11.5985
▁authorit	-11.5986
▁explos	-11.6009
▁Ecrivez	-11.6014
▁Hokkaido	-11.6014
▁bruyant	-11.6014
▁curiosit	-11.6014
▁festival	-11.6014
▁vegetarien	-11.6014
▁phenomen	-11.6014
▁sword	-11.6014
▁collegue	-11.6014
▁skinny	-11.6014
▁stunn	-11.6014
▁croyez	-11.6014
▁committed	-11.6014
▁volcan	-11.6015
▁trade	-11.6015
▁discre	-11.6015
▁robbed	-11.6015
▁reduit	-11.6015
▁ongles	-11.6015
▁glance	-11.6016
▁chauffeur	-11.6016
▁bench	-11.6016
▁quasi	-11.6016
▁partner	-11.6016
▁dozen	-11.6017
terrestre	-11.6017
▁etendu	-11.6018
▁unusual	-11.6018
▁humanity	-11.602
▁devil	-11.6023
▁Ouvrez	-11.6024
▁inspire	-11.6026
▁active	-11.6029
▁ancienne	-11.6031
▁recoi	-11.6035
▁fake	-11.604
▁maybe	-11.6042
▁etonne	-11.6042
▁venge	-11.6044
pita	-11.6045
▁necessite	-11.6064
dieu	-11.6082
▁depeche	-11.6112
▁reguliere	-11.6115
▁depecher	-11.6119
▁period	-11.6122
forme	-11.6191
cinq	-11.6198
▁loupe	-11.6204
▁Ouvre	-11.621
sept	-11.6211
▁nettoy	-11.6218
▁advertis	-11.6218
▁Apprend	-11.6218
▁Cherche	-11.6218
▁Muslim	-11.6218
▁School	-11.6218
▁dizz	-11.6218
▁indifferent	-11.6218
▁injuste	-11.6218
▁privacy	-11.6218
▁publique	-11.6218
▁similaire	-11.6218
▁hammer	-11.6218
▁veniez	-11.6218
▁arguing	-11.6218
▁reliable	-11.6218
▁length	-11.6218
▁tissu	-11.6218
▁volume	-11.6218
▁crisis	-11.6219
▁gambl	-11.6219
immigr	-11.6219
▁infirmiere	-11.6219
▁flash	-11.622
▁pouviez	-11.6221
▁natal	-11.6221
▁humor	-11.6226
▁Mexi	-11.6227
▁edge	-11.6227
▁ruine	-11.6229
▁Hav	-11.6229
▁perfection	-11.6232
▁valid	-11.6233
breast	-11.6233
▁relieve	-11.6234
▁acceptable	-11.6238
▁menage	-11.6249
▁revienne	-11.6251
▁ballon	-11.6266
▁deviner	-11.6267
▁Esper	-11.6282
▁ruined	-11.6295
▁vice	-11.6299
▁employ	-11.6333
▁quitta	-11.634
▁recit	-11.6342
▁prononcer	-11.6351
▁debutant	-11.6372
arc	-11.6392
▁religi	-11.6393
ttle	-11.6397
trouv	-11.6401
emprunt	-11.6425
opportunite	-11.6426
▁benefit	-11.6426
▁cardiaque	-11.6426
▁hamburger	-11.6426
▁structure	-11.6426
▁throat	-11.6426
▁traduis	-11.6426
▁autumn	-11.6426
▁manipul	-11.6426
▁pitie	-11.6427
sseyez	-11.6427
▁meurent	-11.6429
▁empire	-11.6429
▁connaissons	-11.6429
▁democratie	-11.6429
▁melange	-11.6434
▁Fume	-11.6436
▁professional	-11.6439
▁Taro	-11.644
▁mouse	-11.6441
▁Passez	-11.6446
▁candy	-11.645
▁Add	-11.6454
▁espion	-11.6455
▁aurions	-11.6459
▁billion	-11.6467
nstein	-11.6483
ayons	-11.6507
▁Sole	-11.6507
posit	-11.6517
▁prenai	-11.6536
▁piss	-11.6578
▁disappear	-11.6609
▁respir	-11.6625
donne	-11.6633
▁viole	-11.6634
▁educat	-11.6638
▁alibi	-11.6639
▁mouchoir	-11.6639
▁rafraichi	-11.6639
▁vegetarian	-11.6639
▁Translat	-11.6639
▁confortable	-11.6639
▁electrique	-11.6639
▁whale	-11.6639
▁fourchette	-11.6639
▁fridge	-11.6639
▁Appare	-11.6639
▁fraiche	-11.6639
▁probabilit	-11.6639
▁glisse	-11.6639
▁Devrai	-11.6639
▁scold	-11.6639
▁tiger	-11.664
▁citron	-11.664
▁communaute	-11.664
▁affame	-11.664
loyal	-11.664
▁servant	-11.664
▁domaine	-11.6641
▁coward	-11.6643
vril	-11.6646
▁choc	-11.665
▁purse	-11.665
▁talentueu	-11.6657
▁chanceuse	-11.666
bilite	-11.6673
▁drawer	-11.6675
▁below	-11.6679
▁ressemblent	-11.6684
▁marg	-11.6684
▁trap	-11.6684
▁teint	-11.6707
▁boule	-11.6714
▁predi	-11.6717
▁Chris	-11.6733
▁verb	-11.6737
eclair	-11.6772
humeur	-11.6772
opinion	-11.6772
truck	-11.6773
teria	-11.6779
▁demissionne	-11.6799
▁rentra	-11.6801
ueur	-11.6804
tenait	-11.6812
▁participa	-11.6817
etat	-11.6826
▁shock	-11.6828
▁Apporte	-11.6847
icile	-11.6852
▁occur	-11.6856
essentiel	-11.6857
▁ceremony	-11.6857
▁inevitable	-11.6857
▁physical	-11.6857
▁tunnel	-11.6857
▁Drink	-11.6857
▁curtain	-11.6857
▁froze	-11.6857
intrigue	-11.6857
▁release	-11.6857
▁tiroir	-11.6857
▁decourage	-11.6857
▁import	-11.6857
endormir	-11.6857
▁douzaine	-11.6857
▁beginner	-11.6857
▁Retire	-11.6857
▁consume	-11.6857
▁loose	-11.6857
▁pupil	-11.6859
▁entrance	-11.6859
▁sensitiv	-11.686
▁reduir	-11.6862
echelle	-11.6863
▁tomate	-11.6864
▁Nord	-11.6864
▁stage	-11.6864
▁divers	-11.6864
▁allergique	-11.6864
▁couverture	-11.6865
▁cerf	-11.6867
▁difficulties	-11.6872
▁marchan	-11.6882
▁drawing	-11.6896
▁ponctuel	-11.6906
▁meters	-11.6914
▁anxi	-11.695
▁Dar	-11.6958
▁declin	-11.6967
Italie	-11.6994
appartient	-11.6994
▁remonte	-11.6998
arabe	-11.7001
ssieds	-11.7054
▁secretar	-11.7056
▁pleura	-11.7075
▁cherchais	-11.7079
▁contradict	-11.7079
▁delicieuse	-11.7079
▁europeen	-11.7079
▁librairie	-11.7079
▁licencie	-11.7079
▁opposite	-11.7079
▁plafond	-11.7079
▁proprietaire	-11.7079
▁technology	-11.7079
▁telescope	-11.7079
▁translating	-11.7079
▁interfere	-11.7079
▁yourselves	-11.7079
▁quarrel	-11.7079
▁trempe	-11.7079
embrassa	-11.7079
▁Believ	-11.7079
▁paradis	-11.7079
▁linguist	-11.7079
▁delicate	-11.7079
▁vertige	-11.7079
▁Parlons	-11.7079
▁eager	-11.7079
▁commettre	-11.7079
▁internet	-11.7079
▁travaillons	-11.7079
▁scru	-11.708
▁descendu	-11.7081
▁tiendra	-11.7081
▁Brita	-11.7082
▁Frankl	-11.7082
▁investigation	-11.7082
▁departure	-11.7083
▁Marc	-11.7085
▁superbe	-11.7085
insi	-11.7087
▁triche	-11.7087
▁derobe	-11.7088
epais	-11.7089
▁terrorist	-11.7091
▁finance	-11.7091
▁flatter	-11.7092
▁alien	-11.7094
▁boutique	-11.7097
▁ignorant	-11.7101
▁derive	-11.7102
▁Dix	-11.7103
opera	-11.7104
entendi	-11.7109
▁engineer	-11.7109
▁longueur	-11.711
▁individual	-11.7114
▁silver	-11.7117
venons	-11.7125
▁pourrai	-11.713
▁acheve	-11.714
ologie	-11.7156
▁elect	-11.7156
nald	-11.716
▁volant	-11.7161
▁promene	-11.7174
▁confronte	-11.7182
thetic	-11.7186
anima	-11.7194
▁ferma	-11.7205
▁protege	-11.7207
iseaux	-11.721
addition	-11.7221
L	-11.7222
year	-11.7228
attrape	-11.7228
▁brun	-11.7282
▁participe	-11.7297
▁conduct	-11.7302
appetit	-11.7306
▁exclu	-11.7306
▁Hawaii	-11.7306
▁Nagoya	-11.7306
▁circonstance	-11.7306
▁flexible	-11.7306
▁imbecile	-11.7306
▁luggage	-11.7306
▁nonsense	-11.7306
▁poursuivi	-11.7306
▁scratch	-11.7306
▁textbook	-11.7306
▁Check	-11.7306
▁Though	-11.7306
▁supper	-11.7306
▁drapeau	-11.7306
▁Heureuse	-11.7306
▁coutume	-11.7306
▁resume	-11.7306
▁divise	-11.7307
▁mosque	-11.7307
▁quarter	-11.7307
▁surmonte	-11.7307
▁desastre	-11.7307
▁flood	-11.7308
▁fiable	-11.7309
▁sympathique	-11.7311
▁pattes	-11.7311
▁tira	-11.7312
▁laughter	-11.7315
▁topic	-11.7316
▁cheating	-11.7318
▁comite	-11.7318
entretien	-11.7321
▁respirer	-11.7321
tilise	-11.7328
agir	-11.7335
▁retira	-11.7348
▁paysage	-11.7352
▁detestai	-11.7353
▁planche	-11.736
▁marchai	-11.7365
▁gagn	-11.737
▁rase	-11.7373
electricit	-11.7422
etang	-11.7427
ology	-11.7427
▁bless	-11.7447
▁confiant	-11.7452
obteni	-11.7454
integr	-11.7455
▁possibl	-11.7467
amitie	-11.7492
annu	-11.7493
▁acheta	-11.7505
▁econom	-11.7514
etage	-11.7521
▁wipe	-11.7535
effondr	-11.7539
equilibre	-11.7539
▁Allemand	-11.7539
▁Welcome	-11.7539
▁alentour	-11.7539
▁compassion	-11.7539
▁epargne	-11.7539
▁pharmaci	-11.7539
▁philosophe	-11.7539
▁recompense	-11.7539
▁telephonique	-11.7539
▁Oublie	-11.7539
▁Promise	-11.7539
▁pompier	-11.7539
▁etasunien	-11.7539
▁malchance	-11.7539
▁pillow	-11.7539
▁Emily	-11.7539
▁committee	-11.7539
▁construir	-11.7539
▁cultive	-11.7539
▁intense	-11.7539
▁focus	-11.7539
▁Susan	-11.7539
▁fermier	-11.7539
▁miserable	-11.7539
▁bleeding	-11.7539
▁creative	-11.7539
▁sexuelle	-11.7539
▁buvez	-11.7539
▁logiciel	-11.7539
▁Green	-11.7539
▁Judy	-11.7539
▁tigre	-11.7539
▁cloture	-11.754
▁electricity	-11.7541
▁ease	-11.7541
enverrai	-11.7542
▁pourraient	-11.7546
comprehensible	-11.7547
▁gear	-11.7553
▁apparent	-11.7553
▁Suisse	-11.7554
hydr	-11.7555
▁publicite	-11.756
▁aimerait	-11.7568
abandonner	-11.7572
▁divin	-11.7582
▁Luck	-11.7607
lung	-11.762
▁retourna	-11.7661
▁repete	-11.7672
dicated	-11.7684
▁communit	-11.7686
important	-11.7693
▁evite	-11.7705
▁instruct	-11.7709
▁lutte	-11.7718
identite	-11.7727
enerve	-11.7733
▁terribl	-11.7759
▁improv	-11.7765
▁malheur	-11.7773
▁Tradui	-11.7777
▁bargain	-11.7777
▁boulanger	-11.7777
▁cambriole	-11.7777
▁especially	-11.7777
▁forbidd	-11.7777
▁opponent	-11.7777
▁pelouse	-11.7777
▁pickpocket	-11.7777
▁poussiere	-11.7777
▁scientific	-11.7777
▁ramasse	-11.7777
▁superior	-11.7777
▁fidele	-11.7777
▁Essayons	-11.7777
▁tranche	-11.7777
▁delayed	-11.7777
▁personnage	-11.7777
▁Etudie	-11.7777
▁abattu	-11.7777
▁affirme	-11.7777
▁Price	-11.7777
▁precipita	-11.7777
▁Ecris	-11.7777
▁bowl	-11.7777
▁apolog	-11.7777
▁circle	-11.7777
▁spoil	-11.7777
▁insane	-11.7777
▁detendu	-11.7777
▁entoure	-11.7778
▁requis	-11.7778
▁convenient	-11.7778
▁reject	-11.7778
▁promote	-11.7779
▁frequente	-11.7779
▁menteuse	-11.7779
▁frog	-11.7782
▁accompanie	-11.7782
▁package	-11.7782
▁sixty	-11.7783
▁digne	-11.7784
▁Pona	-11.7784
▁legend	-11.7785
invita	-11.7789
▁revient	-11.7792
▁director	-11.7792
▁slice	-11.7792
▁ceiling	-11.7794
▁dignit	-11.7796
▁devien	-11.7797
ambo	-11.7803
▁commencai	-11.7808
ouvri	-11.7817
▁sauta	-11.7831
misunderstanding	-11.7835
▁atterri	-11.7844
Inde	-11.7846
▁clou	-11.7851
essayai	-11.7877
▁fee	-11.7891
▁tendu	-11.7917
▁musical	-11.7919
apprecierais	-11.7925
effet	-11.7939
invite	-11.7939
▁demarre	-11.7973
envisage	-11.8017
▁comfort	-11.8019
▁perform	-11.802
enveloppe	-11.8021
gricultur	-11.8021
▁Retourne	-11.8021
▁Wednesday	-11.8021
▁Window	-11.8021
▁chandail	-11.8021
▁diminue	-11.8021
▁guarantee	-11.8021
▁increasing	-11.8021
▁published	-11.8021
▁ridiculous	-11.8021
▁robber	-11.8021
▁stretch	-11.8021
▁thirteen	-11.8021
▁unlucky	-11.8021
▁grenouille	-11.8021
▁personnalite	-11.8021
▁criticize	-11.8021
▁ralenti	-11.8021
▁Canadien	-11.8021
▁partenaire	-11.8021
▁haircut	-11.8021
▁prenons	-11.8021
▁split	-11.8021
▁penetrer	-11.8021
▁title	-11.8021
▁ambitious	-11.8022
▁score	-11.8022
▁subway	-11.8022
▁sneak	-11.8022
▁independant	-11.8023
▁panier	-11.8024
competence	-11.8025
▁harp	-11.8028
▁assassine	-11.8028
▁derangerait	-11.8031
▁Commence	-11.8032
▁journalist	-11.8039
▁Mangez	-11.804
▁voyai	-11.8061
▁applaudi	-11.8089
unny	-11.8112
▁Brea	-11.8117
ennuye	-11.8186
oblige	-11.8186
reasonable	-11.8193
▁architect	-11.8196
▁plaisant	-11.8206
▁ambiti	-11.822
▁justifie	-11.8223
eternit	-11.8233
ggl	-11.8242
▁arrest	-11.8242
olar	-11.8249
▁depit	-11.8258
attendrai	-11.8267
abylia	-11.8271
▁Ajoute	-11.8271
▁charming	-11.8271
▁grammaire	-11.8271
▁homosexuel	-11.8271
▁infection	-11.8271
▁kilometers	-11.8271
▁philosophy	-11.8271
▁principle	-11.8271
▁provoque	-11.8271
▁receipt	-11.8271
▁refrigerator	-11.8271
▁significant	-11.8271
▁swallow	-11.8271
▁tattoo	-11.8271
▁victory	-11.8271
▁athlete	-11.8271
▁surgery	-11.8271
▁marteau	-11.8271
▁buried	-11.8271
▁disaster	-11.8271
▁modifie	-11.8271
▁whistl	-11.8271
▁context	-11.8271
▁precipite	-11.8271
▁creuse	-11.8271
▁Mexico	-11.8272
agissait	-11.8273
▁bonbon	-11.8274
▁classical	-11.8276
▁ordonne	-11.8276
▁root	-11.8276
▁sacrifice	-11.8279
▁mepris	-11.828
▁coach	-11.8281
▁Apportez	-11.8282
▁roue	-11.8282
imite	-11.8284
▁Free	-11.8285
▁baguette	-11.8285
▁Abou	-11.8289
▁Over	-11.8291
izing	-11.8293
atrice	-11.8294
▁metier	-11.8302
▁facteur	-11.8318
aboli	-11.8321
▁franche	-11.8325
▁Helen	-11.8329
▁motion	-11.8341
habituer	-11.8373
▁promett	-11.8387
▁Arm	-11.8401
▁Won	-11.8412
ID	-11.8438
▁libert	-11.8462
▁urge	-11.8484
encre	-11.8496
▁nuclea	-11.8525
▁suspici	-11.8526
▁diagnos	-11.8526
▁distinguish	-11.8527
▁Follow	-11.8527
▁Language	-11.8527
▁Premier	-11.8527
▁Switzerland	-11.8527
▁aggressive	-11.8527
▁arriving	-11.8527
▁bucket	-11.8527
▁cauchemar	-11.8527
▁chagrin	-11.8527
▁chretien	-11.8527
▁democrac	-11.8527
▁dissimule	-11.8527
▁felicite	-11.8527
▁incompetent	-11.8527
▁litterature	-11.8527
▁marchandise	-11.8527
▁pistolet	-11.8527
▁shadow	-11.8527
▁smooth	-11.8527
▁traducteur	-11.8527
▁treasure	-11.8527
▁uncomfortable	-11.8527
▁unexpected	-11.8527
dimension	-11.8527
▁Great	-11.8527
▁Rendez	-11.8527
▁bloom	-11.8527
▁coiffe	-11.8527
▁spatial	-11.8527
▁frustrat	-11.8527
▁douloureu	-11.8527
▁Work	-11.8527
▁bookstore	-11.8527
▁renard	-11.8527
▁stopping	-11.8527
escalade	-11.8527
▁Encore	-11.8527
▁fuite	-11.8527
▁Nature	-11.8527
▁damn	-11.8527
▁massage	-11.8527
arnaque	-11.8527
▁nightmare	-11.8527
▁remarquable	-11.8527
▁rattraper	-11.8527
▁Stand	-11.8528
▁carotte	-11.8528
▁Devine	-11.8528
▁maigre	-11.8528
▁humble	-11.8528
logne	-11.853
▁Wow	-11.8531
▁Porte	-11.8531
▁lanca	-11.8531
▁carpet	-11.8532
▁compani	-11.8533
▁rising	-11.8533
▁heurte	-11.8537
▁panique	-11.8538
▁complaints	-11.8543
▁serveur	-11.8547
▁reveilla	-11.8547
▁naif	-11.855
▁tension	-11.8551
▁Calm	-11.8551
▁contenu	-11.8552
▁jewel	-11.8554
▁obti	-11.8556
▁slave	-11.8564
cession	-11.8566
▁sexual	-11.8566
dessou	-11.8624
oubli	-11.8628
▁blond	-11.8635
▁Win	-11.865
▁timid	-11.8668
▁reagi	-11.869
▁diploma	-11.8704
monnaie	-11.8706
▁consulte	-11.8736
▁savon	-11.8744
rrivait	-11.8754
▁frequenc	-11.876
heroin	-11.8772
ologist	-11.8783
▁possess	-11.8786
iffel	-11.879
obscurit	-11.879
▁Californi	-11.879
▁Hungarian	-11.879
▁belief	-11.879
▁britannique	-11.879
▁champagne	-11.879
▁chirurgie	-11.879
▁conviction	-11.879
▁ingredient	-11.879
▁laundry	-11.879
▁mercredi	-11.879
▁reflexion	-11.879
▁software	-11.879
▁struggle	-11.879
▁target	-11.879
▁translator	-11.879
▁unconscious	-11.879
▁Birds	-11.879
▁frequently	-11.879
▁Doctor	-11.879
▁vaccin	-11.879
▁Like	-11.879
▁communicate	-11.879
▁Dutch	-11.879
▁various	-11.879
▁hidden	-11.879
▁inhabituel	-11.879
▁faineant	-11.8791
▁prevoy	-11.8791
▁Play	-11.8791
▁haunt	-11.8792
▁boucle	-11.8792
▁clue	-11.8792
▁monoton	-11.8792
▁bijou	-11.8792
▁navigue	-11.8793
▁pourvu	-11.8794
▁swam	-11.8795
▁Fari	-11.8795
▁wings	-11.8795
▁Fred	-11.8796
▁branch	-11.8799
▁trouvais	-11.88
▁magnet	-11.8803
▁hante	-11.8817
▁concu	-11.8825
▁epo	-11.888
sinon	-11.889
▁detruir	-11.8895
hood	-11.8908
pression	-11.8968
explosion	-11.8976
looking	-11.8976
having	-11.8978
▁capte	-11.898
abac	-11.8997
▁Whe	-11.9014
▁gratte	-11.902
▁guest	-11.9026
▁contrar	-11.9036
trict	-11.904
▁gouverne	-11.9041
▁navig	-11.9058
▁milita	-11.906
▁Choisis	-11.906
▁approprie	-11.9061
▁bavard	-11.9061
▁celebrit	-11.9061
▁classmates	-11.9061
▁conflit	-11.9061
▁contraint	-11.9061
▁diamant	-11.9061
▁establish	-11.9061
▁hongrois	-11.9061
▁incorrect	-11.9061
▁interpretation	-11.9061
▁malentendu	-11.9061
▁marathon	-11.9061
▁ministre	-11.9061
▁pessimist	-11.9061
▁scolaire	-11.9061
▁surprenant	-11.9061
▁thunder	-11.9061
▁cherchait	-11.9061
▁lendemain	-11.9061
▁funeral	-11.9061
▁rechauffe	-11.9061
igital	-11.9061
▁civilisation	-11.9061
▁propag	-11.9061
▁monstre	-11.9062
▁nause	-11.9063
▁pitch	-11.9063
▁militaire	-11.9063
▁cuis	-11.9063
▁amaze	-11.9064
▁mercy	-11.9065
▁redige	-11.9065
▁alter	-11.9065
▁pleurait	-11.9066
▁Find	-11.9068
▁conquer	-11.9068
▁expire	-11.9069
▁Lisez	-11.9071
▁tortue	-11.9078
▁profondeur	-11.9079
▁souffrir	-11.9101
envoya	-11.9122
embete	-11.9138
▁satisfai	-11.9165
battre	-11.9171
infl	-11.9205
oshi	-11.9224
▁adven	-11.924
ensemble	-11.9254
existence	-11.9256
arrange	-11.9256
orange	-11.926
turn	-11.9278
hange	-11.9303
accompagn	-11.932
▁tendi	-11.9329
▁batter	-11.9335
abat	-11.9336
ambassade	-11.9338
▁Etasunien	-11.9338
▁Portuguese	-11.9338
▁blanket	-11.9338
▁discourage	-11.9338
▁intersection	-11.9338
▁literature	-11.9338
▁ordinary	-11.9338
▁placard	-11.9338
▁rythme	-11.9338
▁sophisticat	-11.9338
▁staff	-11.9338
▁fortunate	-11.9338
▁related	-11.9338
▁recuperer	-11.9338
▁laptop	-11.9338
▁Word	-11.9338
▁moustique	-11.9338
▁atteigni	-11.9338
▁prophet	-11.9338
▁Tuesday	-11.9338
▁loving	-11.9339
▁lottery	-11.9339
▁audaci	-11.9339
▁adventure	-11.9339
▁drama	-11.9339
▁gamin	-11.9339
▁comprennent	-11.9339
▁wheat	-11.9341
▁tempt	-11.9341
▁Twi	-11.9342
▁device	-11.9342
▁niece	-11.9342
▁precious	-11.9342
▁compens	-11.9343
▁central	-11.9343
▁deceive	-11.9344
▁foyer	-11.9344
▁exces	-11.9345
▁flour	-11.9351
▁grille	-11.9352
▁fox	-11.9354
▁connection	-11.9359
▁wage	-11.9365
▁hesita	-11.9367
▁retenu	-11.9524
allume	-11.954
quatre	-11.954
weight	-11.954
▁profession	-11.9588
uddenly	-11.9602
▁govern	-11.9605
▁threat	-11.9613
etween	-11.9622
accueil	-11.9624
incapacit	-11.9624
▁consommation	-11.9624
▁criticism	-11.9624
▁disparaitr	-11.9624
▁formidable	-11.9624
▁poignee	-11.9624
▁response	-11.9624
▁robinet	-11.9624
▁tatouage	-11.9624
▁telecharge	-11.9624
▁thorough	-11.9624
▁Belgi	-11.9624
▁Respect	-11.9624
▁broad	-11.9624
▁dawn	-11.9624
▁endommage	-11.9624
▁excitant	-11.9624
▁refuge	-11.9624
▁signature	-11.9624
▁wreck	-11.9624
▁Black	-11.9624
▁degoutant	-11.9624
▁purchase	-11.9624
▁switch	-11.9624
▁minorit	-11.9624
▁assiette	-11.9624
▁Walk	-11.9624
▁detonation	-11.9624
▁decouvre	-11.9625
▁Rends	-11.9625
▁sanguin	-11.9625
▁dossier	-11.9625
▁oven	-11.9625
▁voyons	-11.9625
▁Harry	-11.9625
litude	-11.9625
▁poussa	-11.9625
▁marron	-11.9626
▁stade	-11.9626
▁portrait	-11.9627
▁creation	-11.9628
▁Allume	-11.9628
▁Achete	-11.9629
▁Hong	-11.9629
▁productive	-11.963
▁denue	-11.9631
▁carbon	-11.9632
▁bordel	-11.9633
▁tribu	-11.9633
▁Coree	-11.9636
▁chou	-11.9642
▁conform	-11.9642
▁coca	-11.9647
▁react	-11.9657
▁Carl	-11.9658
▁unemploy	-11.9676
rench	-11.9685
minded	-11.9695
▁flame	-11.9714
utilite	-11.9721
ennui	-11.9743
excuse	-11.978
allonge	-11.9834
▁ponctu	-11.9852
▁remove	-11.9891
▁construct	-11.9915
▁Reflechis	-11.9918
▁Thursday	-11.9918
▁acquainted	-11.9918
▁awkward	-11.9918
▁circumstance	-11.9918
▁collapse	-11.9918
▁colleague	-11.9918
▁diamond	-11.9918
▁musulman	-11.9918
▁physics	-11.9918
▁recommence	-11.9918
▁reproduir	-11.9918
▁scissors	-11.9918
▁underestimate	-11.9918
▁Prepare	-11.9918
▁astonish	-11.9918
▁cottage	-11.9918
▁jogging	-11.9918
▁obsess	-11.9918
▁soigneuse	-11.9918
▁entertain	-11.9918
▁Charles	-11.9918
▁memorie	-11.9918
▁Spring	-11.9918
▁attentif	-11.9918
▁exagere	-11.9918
▁eighteen	-11.9918
▁Suz	-11.9919
▁distinct	-11.9919
▁officielle	-11.9919
▁diriez	-11.9919
▁monument	-11.992
▁unfair	-11.992
▁deadline	-11.9921
chua	-11.9922
▁tentation	-11.9922
▁audio	-11.9922
▁neuve	-11.9923
▁romantique	-11.9923
▁formule	-11.9924
▁tower	-11.9925
▁romantic	-11.9925
▁jeudi	-11.9926
▁reward	-11.9927
demoiselle	-11.9934
▁chor	-11.9935
▁prepara	-11.9938
anua	-11.9988
▁arrogan	-12
▁mainten	-12.0013
parents	-12.005
horre	-12.0077
ittle	-12.0107
epaule	-12.0137
York	-12.0137
expression	-12.0137
eviter	-12.0146
▁incredibl	-12.0163
▁necessar	-12.0189
j	-12.0194
▁Essaye	-12.0211
▁prude	-12.0212
▁corrupt	-12.0217
▁Travaille	-12.0221
epreuve	-12.0221
hydrogen	-12.0221
▁Obama	-12.0221
▁Olympic	-12.0221
▁Pacifi	-12.0221
▁Soudain	-12.0221
▁compagnon	-12.0221
▁conflict	-12.0221
▁controvers	-12.0221
▁embarrassing	-12.0221
▁minister	-12.0221
▁poitrine	-12.0221
▁portugais	-12.0221
▁schizophreni	-12.0221
▁semblable	-12.0221
▁splendid	-12.0221
▁stimul	-12.0221
▁sunglasses	-12.0221
▁dragon	-12.0221
▁pepper	-12.0221
▁wolf	-12.0221
▁reflet	-12.0221
▁Consider	-12.0221
▁Enjoy	-12.0221
▁optimiste	-12.0221
▁gardien	-12.0221
▁enferme	-12.0221
▁Voyage	-12.0221
▁Tower	-12.0221
▁chauve	-12.0221
▁chimique	-12.0221
▁Apple	-12.0221
▁Jacque	-12.0221
▁renonce	-12.0221
▁convert	-12.0221
▁parfum	-12.0222
▁Music	-12.0222
▁bouilli	-12.0222
▁Year	-12.0222
▁puissance	-12.0222
▁mardi	-12.0222
▁diagnostique	-12.0222
▁gloves	-12.0222
▁preparation	-12.0222
▁siffle	-12.0223
▁cheerful	-12.0223
▁Talk	-12.0223
▁idle	-12.0223
▁tiny	-12.0224
▁alimentaire	-12.0224
▁ennuyeuse	-12.0225
▁freak	-12.0225
▁temptation	-12.0225
▁rival	-12.0226
▁mud	-12.0226
▁fleche	-12.0227
▁Autre	-12.0227
▁Alex	-12.0228
▁Right	-12.0228
▁emission	-12.0229
uangz	-12.0234
▁Madam	-12.0241
▁Exp	-12.0243
▁Step	-12.0247
▁amende	-12.0249
nstead	-12.0253
athleti	-12.0259
▁blog	-12.0265
▁couronne	-12.0279
▁grippe	-12.0282
▁Vienn	-12.0284
▁tram	-12.0309
appiness	-12.0328
▁cheri	-12.033
▁comprendrai	-12.0337
▁indicate	-12.0342
▁reform	-12.0388
▁corrige	-12.0422
▁socia	-12.0439
insulte	-12.0443
evidence	-12.0449
exemple	-12.0449
style	-12.045
ranchement	-12.0458
idiot	-12.0459
▁reuni	-12.0502
attrapa	-12.0503
ploy	-12.0523
▁acquis	-12.0524
▁panneau	-12.0528
▁declara	-12.0532
▁vocabula	-12.0533
▁Michael	-12.0534
▁Muiriel	-12.0534
▁Permettez	-12.0534
▁Yokohama	-12.0534
▁appropriate	-12.0534
▁chemical	-12.0534
▁efficient	-12.0534
▁envelope	-12.0534
▁immense	-12.0534
▁infecte	-12.0534
▁neerlandais	-12.0534
▁procedure	-12.0534
▁racket	-12.0534
▁serrure	-12.0534
▁supprime	-12.0534
▁vigilan	-12.0534
▁Thailand	-12.0534
▁accueilli	-12.0534
▁butterfly	-12.0534
▁cerisier	-12.0534
▁curieuse	-12.0534
▁scholar	-12.0534
▁Venus	-12.0534
▁bloque	-12.0534
▁cellphone	-12.0534
▁contagi	-12.0534
▁requin	-12.0534
▁inherit	-12.0534
▁serviteur	-12.0534
▁transfer	-12.0534
▁poesie	-12.0534
▁initial	-12.0534
▁facult	-12.0534
▁sushi	-12.0534
▁abonda	-12.0534
▁recycl	-12.0534
▁distrait	-12.0534
▁expectations	-12.0534
▁crawl	-12.0535
▁royal	-12.0535
▁millionnaire	-12.0535
▁disposition	-12.0535
▁flamme	-12.0535
▁degage	-12.0536
▁gerant	-12.0536
▁remote	-12.0537
essuy	-12.0538
▁refroidi	-12.0541
▁consent	-12.0541
▁devron	-12.0544
▁Fortun	-12.0567
▁Amene	-12.0568
▁horrifie	-12.0587
▁mandat	-12.0593
attirer	-12.0602
▁gronde	-12.0643
grand	-12.0687
gratitude	-12.0693
VI	-12.0707
bonne	-12.0761
▁media	-12.0767
appareil	-12.0772
Homme	-12.0804
▁gradu	-12.0811
▁biologi	-12.0831
▁investigat	-12.0851
adversaire	-12.0856
▁Answer	-12.0856
▁Comprend	-12.0856
▁David	-12.0856
▁Summer	-12.0856
▁chauffage	-12.0856
▁cueilli	-12.0856
▁delivered	-12.0856
▁fantastic	-12.0856
▁fantastique	-12.0856
▁garbage	-12.0856
▁handkerchief	-12.0856
▁kitten	-12.0856
▁mosquito	-12.0856
▁motorcycle	-12.0856
▁negociation	-12.0856
▁poverty	-12.0856
▁reconsider	-12.0856
▁rugby	-12.0856
▁spaghetti	-12.0856
▁stream	-12.0856
▁typhon	-12.0856
▁grammar	-12.0856
▁Attrape	-12.0856
▁bluff	-12.0856
autoroute	-12.0856
▁impuissant	-12.0856
▁recipe	-12.0856
▁rotten	-12.0856
▁etonnant	-12.0856
▁stead	-12.0856
▁undress	-12.0856
▁Choisissez	-12.0856
▁turtle	-12.0856
▁valable	-12.0857
▁Petit	-12.0857
▁kilogram	-12.0857
▁Jimmy	-12.0857
▁revenge	-12.0857
▁tricot	-12.0857
▁collier	-12.0857
▁appetite	-12.0857
▁superstiti	-12.0857
▁Honest	-12.0857
▁stain	-12.0857
Histoire	-12.0858
▁eternelle	-12.0858
▁chom	-12.0858
▁shade	-12.0859
▁arrow	-12.086
▁export	-12.0861
▁centuri	-12.0861
folded	-12.0862
▁Hang	-12.0863
▁scale	-12.0867
▁oublia	-12.0868
▁replie	-12.0872
ouverture	-12.0874
▁routi	-12.0875
accusa	-12.0876
hebreu	-12.0884
▁mysterie	-12.0888
▁delete	-12.0898
▁souviendr	-12.0909
equate	-12.093
▁infinite	-12.0978
▁Regard	-12.0995
▁rag	-12.1005
▁Serai	-12.1037
▁Tak	-12.1067
etrange	-12.1074
islam	-12.1086
▁calculate	-12.11
oppose	-12.1105
kind	-12.1107
▁necessit	-12.1107
▁Grac	-12.1167
▁democrat	-12.1185
escalier	-12.1188
Afghanistan	-12.119
enthousiasme	-12.119
▁accurate	-12.119
▁bracelet	-12.119
▁continent	-12.119
▁corrompu	-12.119
▁fabul	-12.119
▁forecast	-12.119
▁introduit	-12.119
▁jumeaux	-12.119
▁obstacle	-12.119
▁obtain	-12.119
▁privilege	-12.119
▁prononciation	-12.119
▁satellite	-12.119
▁televiseur	-12.119
▁trumpet	-12.119
▁tuberculos	-12.119
▁Democra	-12.119
▁Yamada	-12.119
▁couloir	-12.119
▁fifth	-12.119
▁trunk	-12.119
▁baggage	-12.119
▁concentrati	-12.119
▁inspiration	-12.119
▁parallel	-12.119
▁superfici	-12.119
▁grenier	-12.119
quillage	-12.119
▁Degage	-12.119
▁Hebrew	-12.119
▁brieve	-12.119
▁exclusive	-12.119
▁unfortunate	-12.119
▁institution	-12.119
▁rigole	-12.119
▁global	-12.119
▁conspir	-12.119
▁bunch	-12.119
▁ressemblait	-12.119
▁rebelle	-12.119
▁Finn	-12.119
▁recall	-12.119
▁tyran	-12.119
▁discuta	-12.1191
▁prudence	-12.1191
▁vocabulary	-12.1191
▁bribe	-12.1191
▁starving	-12.1191
▁interrompu	-12.1191
▁faithful	-12.1191
▁carrot	-12.1192
▁renov	-12.1193
▁commission	-12.1194
▁destinee	-12.1194
▁tolerate	-12.1194
▁putain	-12.1195
▁patin	-12.1195
▁corruption	-12.1195
patrie	-12.1198
uillet	-12.1204
revious	-12.1215
MS	-12.1234
▁Grec	-12.1239
▁sucrerie	-12.1261
egard	-12.1277
struction	-12.1281
▁familie	-12.1284
▁traditionnel	-12.1379
enonce	-12.1388
▁manual	-12.1398
understood	-12.145
imagination	-12.145
food	-12.145
▁slip	-12.1478
echappe	-12.1506
▁detecte	-12.1513
▁accompan	-12.1527
▁cigar	-12.1531
accoutume	-12.1534
orthographe	-12.1534
▁Hiroshi	-12.1534
▁Minister	-12.1534
▁burglar	-12.1534
▁cinquieme	-12.1534
▁congratulate	-12.1534
▁conservati	-12.1534
▁coronavirus	-12.1534
▁declenche	-12.1534
▁discount	-12.1534
▁fascinant	-12.1534
▁galaxie	-12.1534
▁hypothese	-12.1534
▁inconscient	-12.1534
▁maximu	-12.1534
▁railroad	-12.1534
▁recommanda	-12.1534
▁stubborn	-12.1534
▁substance	-12.1534
▁temporar	-12.1534
▁thumb	-12.1534
▁typhoon	-12.1534
▁Congres	-12.1534
▁Corrige	-12.1534
▁asteroid	-12.1534
▁historique	-12.1534
▁spontane	-12.1534
▁agenda	-12.1534
▁priorite	-12.1534
▁Reveille	-12.1534
▁Scott	-12.1534
▁escort	-12.1534
▁domestique	-12.1534
▁excessive	-12.1534
▁mechanic	-12.1534
▁manifeste	-12.1534
▁critical	-12.1535
ssociation	-12.1535
▁Milk	-12.1535
▁surrender	-12.1535
▁racine	-12.1535
▁boots	-12.1535
▁ladder	-12.1535
▁pouce	-12.1535
▁diverti	-12.1535
▁Soviet	-12.1535
▁swimmer	-12.1535
▁revolt	-12.1535
▁Angel	-12.1536
▁furious	-12.1536
▁declaration	-12.1536
▁mutual	-12.1536
▁envy	-12.1537
▁sailor	-12.1538
▁punch	-12.154
▁envisager	-12.154
emmene	-12.1541
▁Decemb	-12.1542
bilities	-12.1543
orgue	-12.1563
▁biolog	-12.1569
▁termina	-12.1571
▁devenai	-12.1596
▁astronom	-12.1608
explique	-12.1664
▁Baisse	-12.168
offensi	-12.1714
▁foudr	-12.1719
▁soumis	-12.1726
viendrez	-12.1732
▁depens	-12.1776
▁marcha	-12.1778
appartement	-12.1807
inconvenient	-12.1807
avocat	-12.1807
accomplir	-12.1812
averti	-12.1814
egalite	-12.182
▁Eloigne	-12.1892
▁Mozart	-12.1892
▁Portugal	-12.1892
▁Reviens	-12.1892
▁Science	-12.1892
▁WhatsApp	-12.1892
▁abasourdi	-12.1892
▁attribue	-12.1892
▁catastrophe	-12.1892
▁crocodile	-12.1892
▁enormous	-12.1892
▁harvest	-12.1892
▁insupportable	-12.1892
▁perplexe	-12.1892
▁pronunciation	-12.1892
▁renforce	-12.1892
▁retabli	-12.1892
▁susceptible	-12.1892
▁symptome	-12.1892
▁Prefere	-12.1892
▁Republic	-12.1892
▁automatique	-12.1892
▁effronte	-12.1892
▁habile	-12.1892
▁raccourci	-12.1892
▁cautious	-12.1892
▁Yeah	-12.1892
▁acquire	-12.1892
▁postcard	-12.1892
▁tracasse	-12.1892
▁perseveran	-12.1892
▁definitive	-12.1892
▁Silence	-12.1892
▁Sleep	-12.1892
▁yelling	-12.1892
▁plaque	-12.1892
▁gossip	-12.1892
echappa	-12.1892
▁overcome	-12.1892
lphin	-12.1892
▁barbecue	-12.1892
▁resolv	-12.1892
▁civilization	-12.1892
▁fauteuil	-12.1892
▁roommate	-12.1892
▁galerie	-12.1892
▁thiev	-12.1892
▁materiel	-12.1893
▁devastat	-12.1893
▁wander	-12.1893
familia	-12.1893
▁jumelle	-12.1893
▁worries	-12.1893
▁urina	-12.1893
▁ninety	-12.1893
▁deguise	-12.1895
▁orbit	-12.1895
▁homo	-12.1896
▁realisa	-12.1899
▁horn	-12.1901
munition	-12.1901
▁dessinee	-12.1901
▁raccroch	-12.1937
▁Plan	-12.1958
▁vanit	-12.1984
voient	-12.1987
▁grandparent	-12.1996
pelled	-12.2054
▁Melan	-12.2104
▁suffi	-12.2131
ologue	-12.214
essaierai	-12.2166
Islam	-12.2177
original	-12.2177
ancien	-12.2184
ggy	-12.2196
▁cheat	-12.2213
▁trava	-12.2226
tudents	-12.2241
▁evide	-12.2252
▁remarqua	-12.2261
▁Promets	-12.2262
▁FBI	-12.2262
▁Imagine	-12.2262
▁agressif	-12.2262
▁beggar	-12.2262
▁desagreable	-12.2262
▁embouteillage	-12.2262
▁empreinte	-12.2262
▁excursion	-12.2262
▁invisible	-12.2262
▁landscape	-12.2262
▁manifestation	-12.2262
▁nickname	-12.2262
▁quatorze	-12.2262
▁rejoint	-12.2262
▁tragedie	-12.2262
▁constitution	-12.2262
▁explode	-12.2262
▁fabric	-12.2262
▁furieuse	-12.2262
▁helicopter	-12.2262
▁maladroit	-12.2262
▁ambigu	-12.2262
▁poubelle	-12.2262
▁phase	-12.2262
hearted	-12.2262
▁Beware	-12.2262
▁maintain	-12.2262
▁republi	-12.2262
▁shelter	-12.2262
▁laborato	-12.2262
▁rationnel	-12.2262
▁impressionnant	-12.2262
▁string	-12.2262
▁emerge	-12.2262
evrier	-12.2262
▁Fear	-12.2262
▁chief	-12.2263
▁sunset	-12.2263
▁shaking	-12.2263
▁Must	-12.2263
▁vieilliss	-12.2265
▁luxur	-12.2266
ccident	-12.2267
▁inspect	-12.2267
▁freeze	-12.2286
adviendra	-12.2296
▁surnom	-12.2298
▁rapproch	-12.2303
▁timbre	-12.2328
▁satisfaisant	-12.2329
inverse	-12.2382
▁cadet	-12.2421
appri	-12.2432
▁grossi	-12.2458
▁devoi	-12.2511
▁prouve	-12.2577
eclat	-12.2582
iversite	-12.2585
obtien	-12.261
embarras	-12.2646
▁Beethoven	-12.2647
▁Correct	-12.2647
▁Shanghai	-12.2647
▁Vietnam	-12.2647
▁Wikipedia	-12.2647
▁acknowledge	-12.2647
▁attribute	-12.2647
▁brilliant	-12.2647
▁categorie	-12.2647
▁dauphin	-12.2647
▁effrayant	-12.2647
▁fracture	-12.2647
▁fundamental	-12.2647
▁genuine	-12.2647
▁proportion	-12.2647
▁saxophone	-12.2647
▁solitaire	-12.2647
▁typical	-12.2647
▁Vraiment	-12.2647
▁optimistic	-12.2647
▁produira	-12.2647
▁triangle	-12.2647
▁hypoc	-12.2647
▁polonais	-12.2647
▁August	-12.2647
▁eduque	-12.2647
▁Okay	-12.2647
▁verify	-12.2647
▁pilule	-12.2647
▁seventeen	-12.2647
▁Police	-12.2647
▁negocie	-12.2647
▁dismiss	-12.2647
▁recouvert	-12.2647
▁distributeur	-12.2647
▁outdoor	-12.2647
▁rocher	-12.2647
▁shift	-12.2647
▁raconta	-12.2647
▁cafard	-12.2647
▁Laurie	-12.2647
▁Normal	-12.2647
▁devoue	-12.2647
▁parliez	-12.2647
▁organization	-12.2647
▁olive	-12.2647
▁inscrit	-12.2647
▁riddle	-12.2647
▁Judg	-12.2647
▁skate	-12.2647
▁loaded	-12.2647
▁fauche	-12.2647
▁Pluto	-12.2647
▁straw	-12.2648
▁panda	-12.2648
▁aggr	-12.2652
▁manquai	-12.2652
▁releve	-12.2654
xplain	-12.2658
▁Chante	-12.2666
inventer	-12.2668
apercev	-12.2672
pposition	-12.2696
▁prettie	-12.2707
aussi	-12.2711
emball	-12.2806
▁confront	-12.2862
ecureuil	-12.2962
interessant	-12.2962
engage	-12.2963
enquete	-12.2971
▁potato	-12.303
optimis	-12.3046
▁Accept	-12.3047
▁Catholic	-12.3047
▁Comprenez	-12.3047
▁Halloween	-12.3047
▁International	-12.3047
▁Obvious	-12.3047
▁Okinawa	-12.3047
▁Septemb	-12.3047
▁YouTube	-12.3047
▁behaviour	-12.3047
▁catholique	-12.3047
▁chemistry	-12.3047
▁dialect	-12.3047
▁fulfill	-12.3047
▁mammifere	-12.3047
▁medication	-12.3047
▁perspective	-12.3047
▁raquette	-12.3047
▁refresh	-12.3047
▁ridiculise	-12.3047
▁turkey	-12.3047
accumul	-12.3047
▁geograph	-12.3047
▁mammal	-12.3047
▁sourcil	-12.3047
▁Raconte	-12.3047
▁appeal	-12.3047
▁Study	-12.3047
▁asiatique	-12.3047
▁cliff	-12.3047
▁Yoko	-12.3047
▁possedai	-12.3047
▁disobey	-12.3047
▁relache	-12.3047
▁rural	-12.3047
arroser	-12.3047
▁rational	-12.3047
▁resort	-12.3047
▁repousse	-12.3047
▁pawn	-12.3047
▁embarrassant	-12.3047
▁parcouru	-12.3047
▁trousers	-12.3047
▁sample	-12.3047
▁snack	-12.3047
▁backwards	-12.3047
▁trapped	-12.3047
▁vacant	-12.3047
▁fesse	-12.3048
Orient	-12.3053
viendront	-12.3053
officier	-12.3063
▁Prim	-12.3069
▁eteindr	-12.3071
▁terrorism	-12.3078
▁sermon	-12.3081
▁cooperat	-12.3086
▁meditat	-12.3094
ophie	-12.311
inquietude	-12.3111
▁respectueu	-12.3118
▁diplomati	-12.318
▁decouvri	-12.32
▁believ	-12.3225
apprendrai	-12.3297
expedi	-12.3303
inattendu	-12.3311
froid	-12.3369
ignorance	-12.3378
attaque	-12.3379
poids	-12.3379
▁statu	-12.3383
Emp	-12.3401
enlever	-12.3427
▁genti	-12.346
▁favour	-12.3461
excellen	-12.3461
▁recogni	-12.3463
echantillon	-12.3463
impermeable	-12.3463
▁Conduis	-12.3463
▁Hamlet	-12.3463
▁Mathematic	-12.3463
▁Remettez	-12.3463
▁Street	-12.3463
▁Suivez	-12.3463
▁Swedish	-12.3463
▁blossom	-12.3463
▁chapitre	-12.3463
▁consciousness	-12.3463
▁decharge	-12.3463
▁demonstration	-12.3463
▁enthusias	-12.3463
▁exaggerate	-12.3463
▁intellectuel	-12.3463
▁microscope	-12.3463
▁negotiation	-12.3463
▁prejuge	-12.3463
▁pyjama	-12.3463
▁reluctant	-12.3463
▁royaume	-12.3463
▁sceptique	-12.3463
▁silencieuse	-12.3463
▁temporaire	-12.3463
▁unbelievabl	-12.3463
▁universitaire	-12.3463
▁Arretons	-12.3463
▁Cookie	-12.3463
▁Wood	-12.3463
▁conneries	-12.3463
▁knight	-12.3463
▁stiff	-12.3463
▁Prince	-12.3463
▁accusation	-12.3463
▁reparation	-12.3463
▁suedois	-12.3463
▁recrute	-12.3463
▁diligen	-12.3463
▁atomique	-12.3463
▁champignon	-12.3463
ennedy	-12.3463
▁Berber	-12.3463
exposition	-12.3463
▁handicap	-12.3463
▁transpire	-12.3463
embarque	-12.3463
▁yield	-12.3464
▁Enleve	-12.3464
▁overdose	-12.3464
▁phare	-12.3464
hannel	-12.3464
▁deprive	-12.3464
▁hike	-12.3464
▁surgeon	-12.3464
▁Souven	-12.3464
▁console	-12.3464
▁secoue	-12.3464
▁souligne	-12.3464
▁nettoie	-12.3465
▁Joyeu	-12.3473
▁Espec	-12.3476
▁garda	-12.3494
▁roula	-12.3496
▁slapp	-12.35
ppelons	-12.3504
▁raccompagne	-12.3539
equila	-12.357
architecture	-12.359
▁Cinq	-12.3634
▁administrat	-12.3641
▁tuyau	-12.3682
▁mug	-12.3694
averse	-12.3701
▁distingue	-12.3741
▁choos	-12.3764
predictable	-12.3765
romettez	-12.3776
pleasant	-12.3813
condition	-12.3814
power	-12.3815
effort	-12.3815
▁Environ	-12.3898
▁Repondez	-12.3898
▁acquitte	-12.3898
▁adjust	-12.3898
▁astronaut	-12.3898
▁brochure	-12.3898
▁catalogue	-12.3898
▁discrimination	-12.3898
▁elimine	-12.3898
▁epouvantable	-12.3898
▁etudions	-12.3898
▁expliqua	-12.3898
▁extraordinar	-12.3898
▁feminin	-12.3898
▁kanji	-12.3898
▁massacre	-12.3898
▁mediocre	-12.3898
▁mushroom	-12.3898
▁paragraph	-12.3898
▁pneumoni	-12.3898
▁pommier	-12.3898
▁refugie	-12.3898
▁smashed	-12.3898
▁sufficient	-12.3898
▁sunshine	-12.3898
▁tragedy	-12.3898
▁Turkish	-12.3898
▁erudit	-12.3898
▁spectat	-12.3898
▁equation	-12.3898
▁harcele	-12.3898
▁mendiant	-12.3898
▁prosperit	-12.3898
▁valley	-12.3898
▁shark	-12.3898
▁Food	-12.3898
▁memorize	-12.3898
▁Pardonnez	-12.3898
▁vallee	-12.3898
▁chapter	-12.3898
▁memorise	-12.3898
▁reference	-12.3898
▁souffla	-12.3898
▁bruise	-12.3898
▁indigne	-12.3898
empecha	-12.3898
▁pourboire	-12.3898
W	-12.6327
J	-12.754
Y	-12.8206
,	-13.8615
'	-13.8616
.	-13.8617
